{
  "version": "1.0",
  "truncation": null,
  "padding": null,
  "added_tokens": [
    {
      "id": 0,
      "content": "<pad>",
      "single_word": false,
      "lstrip": false,
      "rstrip": false,
      "normalized": false,
      "special": true
    },
    {
      "id": 1,
      "content": "<unk>",
      "single_word": false,
      "lstrip": false,
      "rstrip": false,
      "normalized": false,
      "special": true
    },
    {
      "id": 2,
      "content": "<eos>",
      "single_word": false,
      "lstrip": false,
      "rstrip": false,
      "normalized": false,
      "special": true
    }
  ],
  "normalizer": null,
  "pre_tokenizer": {
    "type": "WhitespaceSplit"
  },
  "post_processor": null,
  "decoder": null,
  "model": {
    "type": "BPE",
    "dropout": null,
    "unk_token": "<unk>",
    "continuing_subword_prefix": null,
    "end_of_word_suffix": null,
    "fuse_unk": false,
    "byte_fallback": false,
    "ignore_merges": false,
    "vocab": {
      "<pad>": 0,
      "<unk>": 1,
      "<eos>": 2,
      "a": 3,
      "b": 4,
      "c": 5,
      "d": 6,
      "e": 7,
      "f": 8,
      "g": 9,
      "h": 10,
      "i": 11,
      "j": 12,
      "k": 13,
      "l": 14,
      "m": 15,
      "n": 16,
      "o": 17,
      "p": 18,
      "q": 19,
      "r": 20,
      "s": 21,
      "t": 22,
      "u": 23,
      "v": 24,
      "w": 25,
      "x": 26,
      "y": 27,
      "z": 28,
      "th": 29,
      "in": 30,
      "er": 31,
      "an": 32,
      "on": 33,
      "the": 34,
      "re": 35,
      "al": 36,
      "en": 37,
      "at": 38,
      "is": 39,
      "or": 40,
      "ed": 41,
      "es": 42,
      "ar": 43,
      "of": 44,
      "as": 45,
      "ic": 46,
      "and": 47,
      "it": 48,
      "ou": 49,
      "to": 50,
      "ion": 51,
      "st": 52,
      "ing": 53,
      "ch": 54,
      "le": 55,
      "ro": 56,
      "se": 57,
      "one": 58,
      "ent": 59,
      "ve": 60,
      "ol": 61,
      "ct": 62,
      "il": 63,
      "om": 64,
      "ero": 65,
      "ly": 66,
      "ig": 67,
      "be": 68,
      "de": 69,
      "am": 70,
      "zero": 71,
      "si": 72,
      "ine": 73,
      "ation": 74,
      "for": 75,
      "tw": 76,
      "im": 77,
      "ist": 78,
      "wh": 79,
      "con": 80,
      "ag": 81,
      "ad": 82,
      "nine": 83,
      "ce": 84,
      "un": 85,
      "two": 86,
      "ver": 87,
      "su": 88,
      "ter": 89,
      "lo": 90,
      "he": 91,
      "ab": 92,
      "ci": 93,
      "ive": 94,
      "mo": 95,
      "igh": 96,
      "us": 97,
      "our": 98,
      "pe": 99,
      "no": 100,
      "ut": 101,
      "ur": 102,
      "that": 103,
      "ra": 104,
      "ul": 105,
      "so": 106,
      "wi": 107,
      "ir": 108,
      "are": 109,
      "ther": 110,
      "ph": 111,
      "em": 112,
      "ree": 113,
      "ight": 114,
      "by": 115,
      "with": 116,
      "po": 117,
      "com": 118,
      "pro": 119,
      "ri": 120,
      "was": 121,
      "ex": 122,
      "ap": 123,
      "di": 124,
      "ay": 125,
      "li": 126,
      "six": 127,
      "res": 128,
      "three": 129,
      "au": 130,
      "man": 131,
      "ac": 132,
      "est": 133,
      "et": 134,
      "ment": 135,
      "four": 136,
      "ate": 137,
      "ers": 138,
      "ven": 139,
      "five": 140,
      "eight": 141,
      "ical": 142,
      "art": 143,
      "el": 144,
      "og": 145,
      "oun": 146,
      "go": 147,
      "pl": 148,
      "his": 149,
      "rom": 150,
      "act": 151,
      "inc": 152,
      "vi": 153,
      "ne": 154,
      "ain": 155,
      "op": 156,
      "ill": 157,
      "from": 158,
      "all": 159,
      "ism": 160,
      "ha": 161,
      "ld": 162,
      "arch": 163,
      "af": 164,
      "te": 165,
      "qu": 166,
      "tr": 167,
      "der": 168,
      "ity": 169,
      "wor": 170,
      "ant": 171,
      "ess": 172,
      "seven": 173,
      "olog": 174,
      "str": 175,
      "co": 176,
      "ds": 177,
      "ian": 178,
      "ich": 179,
      "ies": 180,
      "ia": 181,
      "not": 182,
      "du": 183,
      "bo": 184,
      "gh": 185,
      "ure": 186,
      "sh": 187,
      "ber": 188,
      "ow": 189,
      "ric": 190,
      "other": 191,
      "ge": 192,
      "per": 193,
      "ere": 194,
      "ction": 195,
      "which": 196,
      "this": 197,
      "um": 198,
      "ated": 199,
      "ort": 200,
      "have": 201,
      "ough": 202,
      "fe": 203,
      "pre": 204,
      "ally": 205,
      "ak": 206,
      "som": 207,
      "form": 208,
      "ult": 209,
      "out": 210,
      "ear": 211,
      "ous": 212,
      "id": 213,
      "if": 214,
      "me": 215,
      "ans": 216,
      "ast": 217,
      "ish": 218,
      "cl": 219,
      "ten": 220,
      "age": 221,
      "gr": 222,
      "war": 223,
      "cont": 224,
      "part": 225,
      "also": 226,
      "ach": 227,
      "ence": 228,
      "rit": 229,
      "bl": 230,
      "gu": 231,
      "sy": 232,
      "dis": 233,
      "but": 234,
      "fer": 235,
      "port": 236,
      "has": 237,
      "ud": 238,
      "some": 239,
      "pr": 240,
      "ory": 241,
      "low": 242,
      "ary": 243,
      "ology": 244,
      "ists": 245,
      "who": 246,
      "ong": 247,
      "ition": 248,
      "ates": 249,
      "gen": 250,
      "cent": 251,
      "iv": 252,
      "comm": 253,
      "pres": 254,
      "pt": 255,
      "ame": 256,
      "ound": 257,
      "ks": 258,
      "now": 259,
      "od": 260,
      "fo": 261,
      "ould": 262,
      "can": 263,
      "ard": 264,
      "eric": 265,
      "most": 266,
      "ial": 267,
      "ations": 268,
      "its": 269,
      "end": 270,
      "linc": 271,
      "oln": 272,
      "lincoln": 273,
      "col": 274,
      "they": 275,
      "ics": 276,
      "soci": 277,
      "iz": 278,
      "pu": 279,
      "la": 280,
      "fic": 281,
      "ran": 282,
      "ple": 283,
      "aut": 284,
      "ass": 285,
      "inter": 286,
      "pos": 287,
      "americ": 288,
      "ma": 289,
      "anarch": 290,
      "her": 291,
      "spe": 292,
      "phy": 293,
      "were": 294,
      "such": 295,
      "many": 296,
      "tim": 297,
      "their": 298,
      "sp": 299,
      "ts": 300,
      "ren": 301,
      "chem": 302,
      "ae": 303,
      "fin": 304,
      "ef": 305,
      "ke": 306,
      "ign": 307,
      "ger": 308,
      "ever": 309,
      "ited": 310,
      "land": 311,
      "than": 312,
      "more": 313,
      "ces": 314,
      "had": 315,
      "des": 316,
      "fa": 317,
      "ational": 318,
      "new": 319,
      "ev": 320,
      "able": 321,
      "ater": 322,
      "hu": 323,
      "ot": 324,
      "min": 325,
      "ip": 326,
      "we": 327,
      "afric": 328,
      "austr": 329,
      "pol": 330,
      "ions": 331,
      "int": 332,
      "there": 333,
      "world": 334,
      "publ": 335,
      "austral": 336,
      "coun": 337,
      "red": 338,
      "fir": 339,
      "als": 340,
      "do": 341,
      "ser": 342,
      "though": 343,
      "phil": 344,
      "ople": 345,
      "tle": 346,
      "people": 347,
      "ural": 348,
      "rel": 349,
      "vers": 350,
      "how": 351,
      "states": 352,
      "char": 353,
      "gore": 354,
      "incl": 355,
      "lan": 356,
      "anim": 357,
      "been": 358,
      "fl": 359,
      "up": 360,
      "ru": 361,
      "car": 362,
      "ect": 363,
      "arm": 364,
      "know": 365,
      "cor": 366,
      "used": 367,
      "ell": 368,
      "nor": 369,
      "state": 370,
      "rop": 371,
      "bec": 372,
      "first": 373,
      "year": 374,
      "jo": 375,
      "ile": 376,
      "hist": 377,
      "them": 378,
      "after": 379,
      "ance": 380,
      "ase": 381,
      "only": 382,
      "when": 383,
      "alchem": 384,
      "see": 385,
      "rand": 386,
      "into": 387,
      "these": 388,
      "stri": 389,
      "philo": 390,
      "gre": 391,
      "philoso": 392,
      "ele": 393,
      "ty": 394,
      "cult": 395,
      "ok": 396,
      "tra": 397,
      "mar": 398,
      "sci": 399,
      "national": 400,
      "ob": 401,
      "produ": 402,
      "ved": 403,
      "langu": 404,
      "ll": 405,
      "aris": 406,
      "present": 407,
      "time": 408,
      "aci": 409,
      "ble": 410,
      "over": 411,
      "ative": 412,
      "ular": 413,
      "ced": 414,
      "main": 415,
      "she": 416,
      "use": 417,
      "gener": 418,
      "would": 419,
      "oc": 420,
      "tern": 421,
      "appe": 422,
      "may": 423,
      "vic": 424,
      "ite": 425,
      "ings": 426,
      "him": 427,
      "lop": 428,
      "dif": 429,
      "dent": 430,
      "way": 431,
      "american": 432,
      "ca": 433,
      "work": 434,
      "own": 435,
      "cess": 436,
      "ask": 437,
      "united": 438,
      "human": 439,
      "gan": 440,
      "ack": 441,
      "oup": 442,
      "ject": 443,
      "ry": 444,
      "sou": 445,
      "will": 446,
      "ors": 447,
      "gover": 448,
      "sa": 449,
      "ities": 450,
      "sel": 451,
      "ages": 452,
      "fore": 453,
      "sub": 454,
      "trans": 455,
      "group": 456,
      "high": 457,
      "lar": 458,
      "velop": 459,
      "sur": 460,
      "africa": 461,
      "air": 462,
      "een": 463,
      "anth": 464,
      "develop": 465,
      "comp": 466,
      "public": 467,
      "charact": 468,
      "cre": 469,
      "ded": 470,
      "cur": 471,
      "fi": 472,
      "rough": 473,
      "stem": 474,
      "att": 475,
      "about": 476,
      "cted": 477,
      "system": 478,
      "old": 479,
      "pop": 480,
      "ind": 481,
      "any": 482,
      "alk": 483,
      "eng": 484,
      "mu": 485,
      "tain": 486,
      "tru": 487,
      "cy": 488,
      "vel": 489,
      "anthrop": 490,
      "ments": 491,
      "cour": 492,
      "num": 493,
      "eu": 494,
      "vis": 495,
      "tho": 496,
      "vie": 497,
      "aristo": 498,
      "ving": 499,
      "ted": 500,
      "indi": 501,
      "bas": 502,
      "cer": 503,
      "writ": 504,
      "stand": 505,
      "polit": 506,
      "includ": 507,
      "my": 508,
      "however": 509,
      "led": 510,
      "vol": 511,
      "ause": 512,
      "history": 513,
      "cr": 514,
      "met": 515,
      "sident": 516,
      "ution": 517,
      "uring": 518,
      "autism": 519,
      "while": 520,
      "ide": 521,
      "archae": 522,
      "ck": 523,
      "cap": 524,
      "med": 525,
      "val": 526,
      "betw": 527,
      "govern": 528,
      "between": 529,
      "call": 530,
      "assi": 531,
      "what": 532,
      "ves": 533,
      "often": 534,
      "under": 535,
      "ding": 536,
      "differ": 537,
      "reas": 538,
      "alask": 539,
      "istic": 540,
      "ads": 541,
      "play": 542,
      "president": 543,
      "bon": 544,
      "sch": 545,
      "stru": 546,
      "uni": 547,
      "apol": 548,
      "gy": 549,
      "atic": 550,
      "found": 551,
      "beli": 552,
      "where": 553,
      "known": 554,
      "ari": 555,
      "commun": 556,
      "lin": 557,
      "sen": 558,
      "tri": 559,
      "well": 560,
      "view": 561,
      "during": 562,
      "years": 563,
      "aristotle": 564,
      "day": 565,
      "ire": 566,
      "mil": 567,
      "par": 568,
      "chan": 569,
      "very": 570,
      "contin": 571,
      "farm": 572,
      "anes": 573,
      "ley": 574,
      "euro": 575,
      "cal": 576,
      "nam": 577,
      "exam": 578,
      "ful": 579,
      "nat": 580,
      "through": 581,
      "sup": 582,
      "les": 583,
      "ake": 584,
      "self": 585,
      "alaska": 586,
      "bi": 587,
      "ual": 588,
      "agric": 589,
      "australia": 590,
      "fol": 591,
      "gg": 592,
      "organ": 593,
      "set": 594,
      "ily": 595,
      "austri": 596,
      "government": 597,
      "agricult": 598,
      "ace": 599,
      "hy": 600,
      "ures": 601,
      "chn": 602,
      "ters": 603,
      "centur": 604,
      "na": 605,
      "os": 606,
      "techn": 607,
      "apollo": 608,
      "europe": 609,
      "pers": 610,
      "reg": 611,
      "ents": 612,
      "econ": 613,
      "like": 614,
      "econom": 615,
      "eth": 616,
      "inst": 617,
      "ft": 618,
      "alg": 619,
      "cept": 620,
      "ians": 621,
      "those": 622,
      "ju": 623,
      "mon": 624,
      "ically": 625,
      "fil": 626,
      "row": 627,
      "ild": 628,
      "social": 629,
      "section": 630,
      "open": 631,
      "less": 632,
      "lish": 633,
      "ue": 634,
      "fam": 635,
      "sin": 636,
      "pri": 637,
      "sam": 638,
      "ating": 639,
      "both": 640,
      "because": 641,
      "mem": 642,
      "ise": 643,
      "contro": 644,
      "speci": 645,
      "anthropology": 646,
      "follow": 647,
      "fran": 648,
      "ting": 649,
      "represent": 650,
      "ship": 651,
      "bus": 652,
      "fact": 653,
      "ane": 654,
      "formation": 655,
      "sider": 656,
      "urn": 657,
      "ological": 658,
      "early": 659,
      "ific": 660,
      "alchemy": 661,
      "gal": 662,
      "gree": 663,
      "dep": 664,
      "term": 665,
      "acid": 666,
      "univers": 667,
      "century": 668,
      "br": 669,
      "fun": 670,
      "refer": 671,
      "consider": 672,
      "ton": 673,
      "eder": 674,
      "being": 675,
      "although": 676,
      "moder": 677,
      "called": 678,
      "agn": 679,
      "ext": 680,
      "maj": 681,
      "philosophy": 682,
      "alkanes": 683,
      "bor": 684,
      "even": 685,
      "feder": 686,
      "ict": 687,
      "agg": 688,
      "ety": 689,
      "dist": 690,
      "long": 691,
      "name": 692,
      "cts": 693,
      "ility": 694,
      "agassi": 695,
      "mor": 696,
      "wer": 697,
      "then": 698,
      "ital": 699,
      "move": 700,
      "different": 701,
      "sing": 702,
      "vir": 703,
      "great": 704,
      "har": 705,
      "ret": 706,
      "cond": 707,
      "life": 708,
      "phys": 709,
      "court": 710,
      "pon": 711,
      "alger": 712,
      "number": 713,
      "ade": 714,
      "cus": 715,
      "sign": 716,
      "vidu": 717,
      "illes": 718,
      "trad": 719,
      "made": 720,
      "character": 721,
      "individu": 722,
      "person": 723,
      "den": 724,
      "mi": 725,
      "orig": 726,
      "let": 727,
      "ants": 728,
      "law": 729,
      "major": 730,
      "origin": 731,
      "lit": 732,
      "book": 733,
      "anarchism": 734,
      "joh": 735,
      "languages": 736,
      "including": 737,
      "later": 738,
      "vari": 739,
      "top": 740,
      "come": 741,
      "bert": 742,
      "partic": 743,
      "achilles": 744,
      "philosoph": 745,
      "science": 746,
      "much": 747,
      "example": 748,
      "aim": 749,
      "best": 750,
      "dom": 751,
      "las": 752,
      "stud": 753,
      "common": 754,
      "language": 755,
      "groups": 756,
      "popul": 757,
      "modern": 758,
      "cle": 759,
      "ep": 760,
      "line": 761,
      "ann": 762,
      "ences": 763,
      "general": 764,
      "since": 765,
      "hom": 766,
      "mat": 767,
      "tagg": 768,
      "sul": 769,
      "carbon": 770,
      "became": 771,
      "taggart": 772,
      "non": 773,
      "emp": 774,
      "bers": 775,
      "each": 776,
      "ron": 777,
      "ines": 778,
      "ars": 779,
      "mot": 780,
      "try": 781,
      "king": 782,
      "right": 783,
      "import": 784,
      "again": 785,
      "app": 786,
      "dire": 787,
      "cover": 788,
      "flu": 789,
      "south": 790,
      "film": 791,
      "ham": 792,
      "hel": 793,
      "arden": 794,
      "fiel": 795,
      "equ": 796,
      "mer": 797,
      "demo": 798,
      "pat": 799,
      "sla": 800,
      "altru": 801,
      "stat": 802,
      "did": 803,
      "aking": 804,
      "ized": 805,
      "culture": 806,
      "john": 807,
      "gra": 808,
      "order": 809,
      "offic": 810,
      "mean": 811,
      "colle": 812,
      "america": 813,
      "australian": 814,
      "cra": 815,
      "ude": 816,
      "anci": 817,
      "requ": 818,
      "child": 819,
      "novel": 820,
      "based": 821,
      "austria": 822,
      "bal": 823,
      "crit": 824,
      "pa": 825,
      "ref": 826,
      "bed": 827,
      "could": 828,
      "ho": 829,
      "list": 830,
      "mus": 831,
      "sion": 832,
      "inv": 833,
      "republic": 834,
      "ization": 835,
      "position": 836,
      "dy": 837,
      "sis": 838,
      "remain": 839,
      "ice": 840,
      "claim": 841,
      "political": 842,
      "support": 843,
      "depend": 844,
      "ta": 845,
      "vil": 846,
      "thing": 847,
      "influ": 848,
      "union": 849,
      "rench": 850,
      "bu": 851,
      "clo": 852,
      "cri": 853,
      "french": 854,
      "mis": 855,
      "sol": 856,
      "rearden": 857,
      "ick": 858,
      "ctor": 859,
      "sive": 860,
      "av": 861,
      "rad": 862,
      "ually": 863,
      "island": 864,
      "lead": 865,
      "sever": 866,
      "effe": 867,
      "cis": 868,
      "ral": 869,
      "ss": 870,
      "sible": 871,
      "point": 872,
      "oper": 873,
      "peri": 874,
      "sym": 875,
      "autistic": 876,
      "vice": 877,
      "large": 878,
      "curren": 879,
      "tradition": 880,
      "back": 881,
      "hab": 882,
      "ness": 883,
      "son": 884,
      "win": 885,
      "before": 886,
      "auth": 887,
      "final": 888,
      "algae": 889,
      "ped": 890,
      "sit": 891,
      "search": 892,
      "lower": 893,
      "just": 894,
      "ben": 895,
      "mill": 896,
      "til": 897,
      "ues": 898,
      "ctive": 899,
      "ract": 900,
      "area": 901,
      "comple": 902,
      "party": 903,
      "mal": 904,
      "ning": 905,
      "wes": 906,
      "information": 907,
      "stu": 908,
      "post": 909,
      "wards": 910,
      "every": 911,
      "bro": 912,
      "eas": 913,
      "another": 914,
      "ories": 915,
      "add": 916,
      "others": 917,
      "natural": 918,
      "dagn": 919,
      "ied": 920,
      "still": 921,
      "population": 922,
      "dagny": 923,
      "get": 924,
      "ious": 925,
      "mit": 926,
      "sm": 927,
      "tre": 928,
      "ional": 929,
      "suc": 930,
      "cii": 931,
      "ished": 932,
      "prim": 933,
      "colon": 934,
      "greek": 935,
      "algeria": 936,
      "da": 937,
      "free": 938,
      "pur": 939,
      "tro": 940,
      "del": 941,
      "thern": 942,
      "power": 943,
      "exp": 944,
      "ward": 945,
      "country": 946,
      "hyd": 947,
      "bur": 948,
      "ool": 949,
      "usu": 950,
      "read": 951,
      "god": 952,
      "class": 953,
      "object": 954,
      "considered": 955,
      "particular": 956,
      "sk": 957,
      "tit": 958,
      "atlas": 959,
      "argu": 960,
      "ascii": 961,
      "second": 962,
      "adv": 963,
      "ress": 964,
      "etim": 965,
      "increas": 966,
      "ives": 967,
      "anarchists": 968,
      "animals": 969,
      "north": 970,
      "against": 971,
      "say": 972,
      "indu": 973,
      "among": 974,
      "civil": 975,
      "european": 976,
      "lat": 977,
      "ality": 978,
      "off": 979,
      "leg": 980,
      "const": 981,
      "within": 982,
      "include": 983,
      "development": 984,
      "characters": 985,
      "control": 986,
      "important": 987,
      "democr": 988,
      "several": 989,
      "lim": 990,
      "water": 991,
      "ang": 992,
      "aly": 993,
      "ste": 994,
      "side": 995,
      "ute": 996,
      "action": 997,
      "prof": 998,
      "anarchist": 999,
      "school": 1000,
      "ath": 1001,
      "city": 1002,
      "ib": 1003,
      "oa": 1004,
      "sum": 1005,
      "anti": 1006,
      "relig": 1007,
      "archaeology": 1008,
      "following": 1009,
      "author": 1010,
      "ban": 1011,
      "cam": 1012,
      "roman": 1013,
      "imate": 1014,
      "aust": 1015,
      "acade": 1016,
      "sometim": 1017,
      "interest": 1018,
      "posed": 1019,
      "animal": 1020,
      "capital": 1021,
      "current": 1022,
      "western": 1023,
      "studi": 1024,
      "brit": 1025,
      "resul": 1026,
      "issu": 1027,
      "arian": 1028,
      "defin": 1029,
      "ama": 1030,
      "territ": 1031,
      "ability": 1032,
      "uses": 1033,
      "ribut": 1034,
      "popular": 1035,
      "bre": 1036,
      "bar": 1037,
      "hou": 1038,
      "allow": 1039,
      "atom": 1040,
      "def": 1041,
      "strong": 1042,
      "meth": 1043,
      "syn": 1044,
      "african": 1045,
      "election": 1046,
      "vision": 1047,
      "agriculture": 1048,
      "technology": 1049,
      "individual": 1050,
      "usually": 1051,
      "bol": 1052,
      "east": 1053,
      "lam": 1054,
      "mid": 1055,
      "arab": 1056,
      "associ": 1057,
      "ably": 1058,
      "works": 1059,
      "certain": 1060,
      "study": 1061,
      "dr": 1062,
      "gin": 1063,
      "gest": 1064,
      "ie": 1065,
      "pract": 1066,
      "feat": 1067,
      "said": 1068,
      "reason": 1069,
      "instit": 1070,
      "sometimes": 1071,
      "don": 1072,
      "sed": 1073,
      "vot": 1074,
      "ze": 1075,
      "thus": 1076,
      "andor": 1077,
      "istics": 1078,
      "abra": 1079,
      "respon": 1080,
      "society": 1081,
      "animation": 1082,
      "mark": 1083,
      "agricultural": 1084,
      "house": 1085,
      "abraham": 1086,
      "fri": 1087,
      "ner": 1088,
      "oil": 1089,
      "ames": 1090,
      "ogra": 1091,
      "never": 1092,
      "central": 1093,
      "descri": 1094,
      "cultural": 1095,
      "english": 1096,
      "gged": 1097,
      "cul": 1098,
      "gold": 1099,
      "same": 1100,
      "tic": 1101,
      "vo": 1102,
      "alth": 1103,
      "chr": 1104,
      "become": 1105,
      "until": 1106,
      "process": 1107,
      "ologists": 1108,
      "shru": 1109,
      "fair": 1110,
      "thought": 1111,
      "struct": 1112,
      "believ": 1113,
      "galt": 1114,
      "field": 1115,
      "gi": 1116,
      "ged": 1117,
      "hal": 1118,
      "lor": 1119,
      "run": 1120,
      "rus": 1121,
      "west": 1122,
      "research": 1123,
      "ator": 1124,
      "accor": 1125,
      "ples": 1126,
      "tenn": 1127,
      "scient": 1128,
      "university": 1129,
      "hydro": 1130,
      "bran": 1131,
      "ga": 1132,
      "theory": 1133,
      "que": 1134,
      "times": 1135,
      "dat": 1136,
      "ders": 1137,
      "make": 1138,
      "you": 1139,
      "ens": 1140,
      "ement": 1141,
      "proper": 1142,
      "estab": 1143,
      "need": 1144,
      "typ": 1145,
      "developed": 1146,
      "systems": 1147,
      "continent": 1148,
      "small": 1149,
      "success": 1150,
      "bn": 1151,
      "men": 1152,
      "ration": 1153,
      "inci": 1154,
      "around": 1155,
      "ches": 1156,
      "leon": 1157,
      "left": 1158,
      "rather": 1159,
      "exist": 1160,
      "appro": 1161,
      "plac": 1162,
      "minist": 1163,
      "histor": 1164,
      "links": 1165,
      "bush": 1166,
      "shrugged": 1167,
      "establish": 1168,
      "egy": 1169,
      "fur": 1170,
      "hand": 1171,
      "lab": 1172,
      "mic": 1173,
      "ox": 1174,
      "won": 1175,
      "real": 1176,
      "envir": 1177,
      "lost": 1178,
      "head": 1179,
      "ared": 1180,
      "good": 1181,
      "place": 1182,
      "viet": 1183,
      "show": 1184,
      "international": 1185,
      "movement": 1186,
      "according": 1187,
      "environ": 1188,
      "cu": 1189,
      "care": 1190,
      "dest": 1191,
      "grow": 1192,
      "nom": 1193,
      "turn": 1194,
      "vation": 1195,
      "analy": 1196,
      "recent": 1197,
      "using": 1198,
      "pot": 1199,
      "ayn": 1200,
      "artic": 1201,
      "generally": 1202,
      "altruism": 1203,
      "egypt": 1204,
      "bra": 1205,
      "ball": 1206,
      "case": 1207,
      "mater": 1208,
      "chor": 1209,
      "beha": 1210,
      "sim": 1211,
      "loc": 1212,
      "areas": 1213,
      "provi": 1214,
      "earth": 1215,
      "ways": 1216,
      "surve": 1217,
      "tries": 1218,
      "andorra": 1219,
      "bc": 1220,
      "ii": 1221,
      "jan": 1222,
      "last": 1223,
      "san": 1224,
      "site": 1225,
      "recor": 1226,
      "ada": 1227,
      "tele": 1228,
      "word": 1229,
      "possible": 1230,
      "economic": 1231,
      "material": 1232,
      "bit": 1233,
      "hol": 1234,
      "ired": 1235,
      "sist": 1236,
      "ination": 1237,
      "independ": 1238,
      "ised": 1239,
      "isbn": 1240,
      "took": 1241,
      "illi": 1242,
      "bet": 1243,
      "evol": 1244,
      "members": 1245,
      "constit": 1246,
      "behavi": 1247,
      "ially": 1248,
      "pass": 1249,
      "wn": 1250,
      "anchor": 1251,
      "log": 1252,
      "held": 1253,
      "pho": 1254,
      "mention": 1255,
      "vid": 1256,
      "near": 1257,
      "body": 1258,
      "means": 1259,
      "countries": 1260,
      "family": 1261,
      "samoa": 1262,
      "moral": 1263,
      "addition": 1264,
      "invol": 1265,
      "revol": 1266,
      "alab": 1267,
      "without": 1268,
      "living": 1269,
      "boo": 1270,
      "production": 1271,
      "craft": 1272,
      "democratic": 1273,
      "british": 1274,
      "christ": 1275,
      "ling": 1276,
      "light": 1277,
      "put": 1278,
      "report": 1279,
      "ctr": 1280,
      "simil": 1281,
      "fort": 1282,
      "wide": 1283,
      "due": 1284,
      "largest": 1285,
      "must": 1286,
      "help": 1287,
      "environment": 1288,
      "similar": 1289,
      "ges": 1290,
      "ni": 1291,
      "round": 1292,
      "sour": 1293,
      "tal": 1294,
      "ths": 1295,
      "rece": 1296,
      "chain": 1297,
      "empt": 1298,
      "akes": 1299,
      "ternal": 1300,
      "politics": 1301,
      "understand": 1302,
      "economy": 1303,
      "liter": 1304,
      "ancient": 1305,
      "austin": 1306,
      "atoms": 1307,
      "anchorage": 1308,
      "dra": 1309,
      "iel": 1310,
      "net": 1311,
      "yl": 1312,
      "today": 1313,
      "level": 1314,
      "sex": 1315,
      "plat": 1316,
      "acts": 1317,
      "geor": 1318,
      "food": 1319,
      "does": 1320,
      "occ": 1321,
      "named": 1322,
      "signific": 1323,
      "symbol": 1324,
      "data": 1325,
      "ken": 1326,
      "uc": 1327,
      "ino": 1328,
      "ined": 1329,
      "ered": 1330,
      "ards": 1331,
      "concer": 1332,
      "ago": 1333,
      "external": 1334,
      "published": 1335,
      "function": 1336,
      "federal": 1337,
      "children": 1338,
      "alabama": 1339,
      "base": 1340,
      "fr": 1341,
      "rich": 1342,
      "test": 1343,
      "along": 1344,
      "chlor": 1345,
      "began": 1346,
      "short": 1347,
      "should": 1348,
      "ived": 1349,
      "appears": 1350,
      "francis": 1351,
      "physics": 1352,
      "official": 1353,
      "close": 1354,
      "objectiv": 1355,
      "academy": 1356,
      "down": 1357,
      "hing": 1358,
      "hun": 1359,
      "ier": 1360,
      "moun": 1361,
      "ank": 1362,
      "roy": 1363,
      "expl": 1364,
      "exten": 1365,
      "incre": 1366,
      "sych": 1367,
      "knowled": 1368,
      "green": 1369,
      "ideas": 1370,
      "change": 1371,
      "various": 1372,
      "slavery": 1373,
      "music": 1374,
      "method": 1375,
      "psych": 1376,
      "tor": 1377,
      "xley": 1378,
      "thin": 1379,
      "ones": 1380,
      "ork": 1381,
      "start": 1382,
      "lear": 1383,
      "road": 1384,
      "robert": 1385,
      "ently": 1386,
      "rail": 1387,
      "poleon": 1388,
      "accept": 1389,
      "former": 1390,
      "press": 1391,
      "face": 1392,
      "huxley": 1393,
      "aircraft": 1394,
      "values": 1395,
      "communic": 1396,
      "continu": 1397,
      "napoleon": 1398,
      "physical": 1399,
      "direct": 1400,
      "mentioned": 1401,
      "christian": 1402,
      "ec": 1403,
      "far": 1404,
      "glo": 1405,
      "jud": 1406,
      "song": 1407,
      "stra": 1408,
      "lect": 1409,
      "bel": 1410,
      "death": 1411,
      "concept": 1412,
      "aber": 1413,
      "activ": 1414,
      "ident": 1415,
      "spee": 1416,
      "web": 1417,
      "archaeological": 1418,
      "meaning": 1419,
      "million": 1420,
      "treat": 1421,
      "synd": 1422,
      "believed": 1423,
      "given": 1424,
      "fem": 1425,
      "ither": 1426,
      "ms": 1427,
      "pen": 1428,
      "vent": 1429,
      "wro": 1430,
      "things": 1431,
      "iness": 1432,
      "ener": 1433,
      "sequ": 1434,
      "deen": 1435,
      "few": 1436,
      "forms": 1437,
      "color": 1438,
      "event": 1439,
      "alchemists": 1440,
      "little": 1441,
      "profess": 1442,
      "further": 1443,
      "francisco": 1444,
      "knowledge": 1445,
      "aberdeen": 1446,
      "wrote": 1447,
      "band": 1448,
      "cing": 1449,
      "eve": 1450,
      "hon": 1451,
      "ww": 1452,
      "ys": 1453,
      "attle": 1454,
      "cho": 1455,
      "cham": 1456,
      "chines": 1457,
      "ross": 1458,
      "abu": 1459,
      "abac": 1460,
      "cial": 1461,
      "formed": 1462,
      "princi": 1463,
      "acids": 1464,
      "appear": 1465,
      "vices": 1466,
      "southern": 1467,
      "higher": 1468,
      "attempt": 1469,
      "famous": 1470,
      "terms": 1471,
      "clear": 1472,
      "covered": 1473,
      "republican": 1474,
      "complete": 1475,
      "territory": 1476,
      "ography": 1477,
      "revolution": 1478,
      "george": 1479,
      "increase": 1480,
      "abacus": 1481,
      "bir": 1482,
      "dle": 1483,
      "fre": 1484,
      "hero": 1485,
      "hard": 1486,
      "mas": 1487,
      "ming": 1488,
      "rul": 1489,
      "tour": 1490,
      "ons": 1491,
      "ency": 1492,
      "educ": 1493,
      "ander": 1494,
      "itect": 1495,
      "chur": 1496,
      "separ": 1497,
      "ential": 1498,
      "architect": 1499,
      "coast": 1500,
      "center": 1501,
      "span": 1502,
      "spir": 1503,
      "father": 1504,
      "appeal": 1505,
      "subst": 1506,
      "milit": 1507,
      "france": 1508,
      "born": 1509,
      "home": 1510,
      "constitution": 1511,
      "chinese": 1512,
      "bri": 1513,
      "gress": 1514,
      "nt": 1515,
      "native": 1516,
      "pal": 1517,
      "ply": 1518,
      "sal": 1519,
      "sto": 1520,
      "asi": 1521,
      "rodu": 1522,
      "begin": 1523,
      "divi": 1524,
      "ured": 1525,
      "gram": 1526,
      "assist": 1527,
      "chemical": 1528,
      "thane": 1529,
      "introdu": 1530,
      "relation": 1531,
      "foreign": 1532,
      "controver": 1533,
      "habi": 1534,
      "industri": 1535,
      "russi": 1536,
      "ail": 1537,
      "cop": 1538,
      "cities": 1539,
      "dou": 1540,
      "dhabi": 1541,
      "gas": 1542,
      "je": 1543,
      "live": 1544,
      "ps": 1545,
      "sw": 1546,
      "ances": 1547,
      "alex": 1548,
      "ends": 1549,
      "ats": 1550,
      "ament": 1551,
      "administ": 1552,
      "verse": 1553,
      "local": 1554,
      "abo": 1555,
      "liber": 1556,
      "illino": 1557,
      "code": 1558,
      "ground": 1559,
      "fict": 1560,
      "polic": 1561,
      "related": 1562,
      "elect": 1563,
      "occur": 1564,
      "subject": 1565,
      "company": 1566,
      "belief": 1567,
      "believe": 1568,
      "special": 1569,
      "critic": 1570,
      "studies": 1571,
      "tennis": 1572,
      "branch": 1573,
      "article": 1574,
      "illinois": 1575,
      "late": 1576,
      "lack": 1577,
      "sun": 1578,
      "snow": 1579,
      "take": 1580,
      "init": 1581,
      "constru": 1582,
      "pet": 1583,
      "lied": 1584,
      "ateg": 1585,
      "rome": 1586,
      "parts": 1587,
      "gust": 1588,
      "discus": 1589,
      "german": 1590,
      "obser": 1591,
      "written": 1592,
      "return": 1593,
      "original": 1594,
      "influence": 1595,
      "situ": 1596,
      "scientific": 1597,
      "books": 1598,
      "significant": 1599,
      "cause": 1600,
      "dan": 1601,
      "fac": 1602,
      "ik": 1603,
      "ked": 1604,
      "nic": 1605,
      "sat": 1606,
      "uary": 1607,
      "yle": 1608,
      "ina": 1609,
      "sea": 1610,
      "deb": 1611,
      "agno": 1612,
      "sus": 1613,
      "loy": 1614,
      "cially": 1615,
      "compu": 1616,
      "augh": 1617,
      "relative": 1618,
      "upon": 1619,
      "products": 1620,
      "himself": 1621,
      "cret": 1622,
      "created": 1623,
      "metal": 1624,
      "views": 1625,
      "sections": 1626,
      "member": 1627,
      "single": 1628,
      "domin": 1629,
      "invest": 1630,
      "features": 1631,
      "energy": 1632,
      "cand": 1633,
      "hip": 1634,
      "km": 1635,
      "nations": 1636,
      "past": 1637,
      "wa": 1638,
      "ints": 1639,
      "reach": 1640,
      "enced": 1641,
      "conne": 1642,
      "cipl": 1643,
      "comes": 1644,
      "project": 1645,
      "expe": 1646,
      "ogn": 1647,
      "plants": 1648,
      "teach": 1649,
      "key": 1650,
      "wealth": 1651,
      "appell": 1652,
      "graph": 1653,
      "period": 1654,
      "traditional": 1655,
      "increasing": 1656,
      "result": 1657,
      "middle": 1658,
      "established": 1659,
      "behavior": 1660,
      "church": 1661,
      "cogn": 1662,
      "dict": 1663,
      "fut": 1664,
      "io": 1665,
      "ler": 1666,
      "mag": 1667,
      "might": 1668,
      "pig": 1669,
      "ancon": 1670,
      "ster": 1671,
      "iled": 1672,
      "decl": 1673,
      "iment": 1674,
      "impro": 1675,
      "whe": 1676,
      "aged": 1677,
      "prop": 1678,
      "proble": 1679,
      "washing": 1680,
      "exper": 1681,
      "resour": 1682,
      "contribut": 1683,
      "black": 1684,
      "discipl": 1685,
      "speak": 1686,
      "news": 1687,
      "service": 1688,
      "engine": 1689,
      "writing": 1690,
      "nature": 1691,
      "throughout": 1692,
      "techni": 1693,
      "remains": 1694,
      "islands": 1695,
      "benef": 1696,
      "destroy": 1697,
      "january": 1698,
      "evolution": 1699,
      "occup": 1700,
      "military": 1701,
      "relationship": 1702,
      "anconia": 1703,
      "dre": 1704,
      "either": 1705,
      "ffic": 1706,
      "mr": 1707,
      "mut": 1708,
      "mel": 1709,
      "making": 1710,
      "spo": 1711,
      "vs": 1712,
      "town": 1713,
      "sec": 1714,
      "imp": 1715,
      "cell": 1716,
      "mole": 1717,
      "pose": 1718,
      "ried": 1719,
      "diagno": 1720,
      "plic": 1721,
      "plant": 1722,
      "vious": 1723,
      "grand": 1724,
      "ended": 1725,
      "fav": 1726,
      "working": 1727,
      "transport": 1728,
      "standards": 1729,
      "presidential": 1730,
      "austrian": 1731,
      "virt": 1732,
      "issues": 1733,
      "institute": 1734,
      "votes": 1735,
      "mountain": 1736,
      "speech": 1737,
      "divided": 1738,
      "above": 1739,
      "cen": 1740,
      "fron": 1741,
      "give": 1742,
      "hen": 1743,
      "ira": 1744,
      "ids": 1745,
      "kill": 1746,
      "mult": 1747,
      "nation": 1748,
      "pap": 1749,
      "youn": 1750,
      "york": 1751,
      "redu": 1752,
      "espe": 1753,
      "least": 1754,
      "semit": 1755,
      "sib": 1756,
      "ceed": 1757,
      "termin": 1758,
      "points": 1759,
      "actions": 1760,
      "ques": 1761,
      "quest": 1762,
      "words": 1763,
      "ishing": 1764,
      "ficult": 1765,
      "army": 1766,
      "northern": 1767,
      "produce": 1768,
      "difficult": 1769,
      "standard": 1770,
      "includes": 1771,
      "medi": 1772,
      "business": 1773,
      "eastern": 1774,
      "hydrogen": 1775,
      "eventually": 1776,
      "architecture": 1777,
      "asiatic": 1778,
      "washington": 1779,
      "semitic": 1780,
      "aver": 1781,
      "hor": 1782,
      "march": 1783,
      "ned": 1784,
      "text": 1785,
      "ald": 1786,
      "always": 1787,
      "total": 1788,
      "che": 1789,
      "legal": 1790,
      "seem": 1791,
      "secret": 1792,
      "entire": 1793,
      "igation": 1794,
      "phen": 1795,
      "program": 1796,
      "exca": 1797,
      "respe": 1798,
      "ested": 1799,
      "viol": 1800,
      "aken": 1801,
      "itions": 1802,
      "ize": 1803,
      "version": 1804,
      "selves": 1805,
      "indian": 1806,
      "lines": 1807,
      "regard": 1808,
      "individuals": 1809,
      "letter": 1810,
      "match": 1811,
      "equip": 1812,
      "effect": 1813,
      "sites": 1814,
      "association": 1815,
      "continental": 1816,
      "record": 1817,
      "continued": 1818,
      "global": 1819,
      "aw": 1820,
      "awards": 1821,
      "brand": 1822,
      "crop": 1823,
      "evid": 1824,
      "hank": 1825,
      "mber": 1826,
      "mass": 1827,
      "nal": 1828,
      "tem": 1829,
      "uk": 1830,
      "rest": 1831,
      "albed": 1832,
      "ators": 1833,
      "ases": 1834,
      "ico": 1835,
      "sele": 1836,
      "ray": 1837,
      "comb": 1838,
      "coming": 1839,
      "august": 1840,
      "ets": 1841,
      "ounds": 1842,
      "ains": 1843,
      "having": 1844,
      "ified": 1845,
      "pras": 1846,
      "colum": 1847,
      "interpre": 1848,
      "anarcho": 1849,
      "lands": 1850,
      "design": 1851,
      "therefore": 1852,
      "services": 1853,
      "trade": 1854,
      "sciences": 1855,
      "meta": 1856,
      "farming": 1857,
      "sampras": 1858,
      "references": 1859,
      "distin": 1860,
      "philosophical": 1861,
      "rights": 1862,
      "fields": 1863,
      "hood": 1864,
      "analysis": 1865,
      "especially": 1866,
      "evidence": 1867,
      "award": 1868,
      "bour": 1869,
      "cit": 1870,
      "cast": 1871,
      "came": 1872,
      "fas": 1873,
      "gar": 1874,
      "happ": 1875,
      "ient": 1876,
      "mc": 1877,
      "night": 1878,
      "por": 1879,
      "ses": 1880,
      "thir": 1881,
      "inten": 1882,
      "ering": 1883,
      "ony": 1884,
      "alt": 1885,
      "ature": 1886,
      "toge": 1887,
      "story": 1888,
      "white": 1889,
      "confeder": 1890,
      "consist": 1891,
      "loo": 1892,
      "box": 1893,
      "berber": 1894,
      "grant": 1895,
      "themselves": 1896,
      "humans": 1897,
      "sahar": 1898,
      "writings": 1899,
      "value": 1900,
      "names": 1901,
      "prior": 1902,
      "specific": 1903,
      "referred": 1904,
      "empire": 1905,
      "paign": 1906,
      "supported": 1907,
      "colonial": 1908,
      "particularly": 1909,
      "title": 1910,
      "campaign": 1911,
      "described": 1912,
      "successful": 1913,
      "labor": 1914,
      "plato": 1915,
      "construction": 1916,
      "together": 1917,
      "ba": 1918,
      "ead": 1919,
      "fig": 1920,
      "kin": 1921,
      "ns": 1922,
      "pion": 1923,
      "wo": 1924,
      "anc": 1925,
      "ising": 1926,
      "itself": 1927,
      "stic": 1928,
      "seen": 1929,
      "omen": 1930,
      "below": 1931,
      "bell": 1932,
      "rain": 1933,
      "range": 1934,
      "count": 1935,
      "alchemical": 1936,
      "traffic": 1937,
      "numer": 1938,
      "community": 1939,
      "movements": 1940,
      "philosopher": 1941,
      "effects": 1942,
      "explo": 1943,
      "burg": 1944,
      "defend": 1945,
      "placed": 1946,
      "historical": 1947,
      "survey": 1948,
      "independent": 1949,
      "photo": 1950,
      "femin": 1951,
      "controversi": 1952,
      "policy": 1953,
      "battle": 1954,
      "james": 1955,
      "kind": 1956,
      "lay": 1957,
      "ods": 1958,
      "pite": 1959,
      "ril": 1960,
      "rational": 1961,
      "ansi": 1962,
      "recogn": 1963,
      "ale": 1964,
      "islam": 1965,
      "edon": 1966,
      "asia": 1967,
      "itarian": 1968,
      "lea": 1969,
      "lee": 1970,
      "ili": 1971,
      "defe": 1972,
      "force": 1973,
      "congress": 1974,
      "sugg": 1975,
      "model": 1976,
      "usa": 1977,
      "soviet": 1978,
      "prote": 1979,
      "libr": 1980,
      "acy": 1981,
      "etc": 1982,
      "active": 1983,
      "teen": 1984,
      "ctions": 1985,
      "whose": 1986,
      "minor": 1987,
      "rule": 1988,
      "rupt": 1989,
      "governor": 1990,
      "founded": 1991,
      "changed": 1992,
      "universal": 1993,
      "invent": 1994,
      "summer": 1995,
      "religion": 1996,
      "gave": 1997,
      "property": 1998,
      "industrial": 1999,
      "alexander": 2000,
      "albedo": 2001,
      "bill": 2002,
      "frequ": 2003,
      "hit": 2004,
      "jour": 2005,
      "lu": 2006,
      "mac": 2007,
      "oe": 2008,
      "py": 2009,
      "paci": 2010,
      "wers": 2011,
      "ert": 2012,
      "ery": 2013,
      "ali": 2014,
      "atives": 2015,
      "offer": 2016,
      "towards": 2017,
      "chi": 2018,
      "seas": 2019,
      "beh": 2020,
      "depart": 2021,
      "confl": 2022,
      "sure": 2023,
      "experi": 2024,
      "april": 2025,
      "lies": 2026,
      "ately": 2027,
      "affair": 2028,
      "quar": 2029,
      "stry": 2030,
      "pread": 2031,
      "earli": 2032,
      "ida": 2033,
      "climate": 2034,
      "tend": 2035,
      "disorder": 2036,
      "foot": 2037,
      "focus": 2038,
      "internet": 2039,
      "despite": 2040,
      "causes": 2041,
      "surface": 2042,
      "indig": 2043,
      "archaeologists": 2044,
      "sense": 2045,
      "species": 2046,
      "influenced": 2047,
      "buil": 2048,
      "career": 2049,
      "better": 2050,
      "involved": 2051,
      "spanish": 2052,
      "russian": 2053,
      "computer": 2054,
      "blo": 2055,
      "ging": 2056,
      "gul": 2057,
      "mig": 2058,
      "muse": 2059,
      "next": 2060,
      "sent": 2061,
      "sco": 2062,
      "repe": 2063,
      "review": 2064,
      "enous": 2065,
      "orders": 2066,
      "arily": 2067,
      "stal": 2068,
      "stone": 2069,
      "chance": 2070,
      "rock": 2071,
      "enter": 2072,
      "deci": 2073,
      "decis": 2074,
      "amph": 2075,
      "amoe": 2076,
      "image": 2077,
      "adop": 2078,
      "moved": 2079,
      "pha": 2080,
      "prob": 2081,
      "aps": 2082,
      "outside": 2083,
      "ides": 2084,
      "ify": 2085,
      "metho": 2086,
      "cannot": 2087,
      "societ": 2088,
      "keep": 2089,
      "saw": 2090,
      "rought": 2091,
      "indic": 2092,
      "trial": 2093,
      "instead": 2094,
      "priv": 2095,
      "motion": 2096,
      "claimed": 2097,
      "increased": 2098,
      "industry": 2099,
      "religious": 2100,
      "simply": 2101,
      "think": 2102,
      "railroad": 2103,
      "appellate": 2104,
      "resources": 2105,
      "behind": 2106,
      "indigenous": 2107,
      "methods": 2108,
      "away": 2109,
      "bs": 2110,
      "categ": 2111,
      "dd": 2112,
      "dut": 2113,
      "fif": 2114,
      "mex": 2115,
      "pun": 2116,
      "squ": 2117,
      "slam": 2118,
      "tation": 2119,
      "tex": 2120,
      "tell": 2121,
      "willi": 2122,
      "inde": 2123,
      "theast": 2124,
      "rele": 2125,
      "org": 2126,
      "dec": 2127,
      "amoun": 2128,
      "ime": 2129,
      "agement": 2130,
      "ado": 2131,
      "health": 2132,
      "pher": 2133,
      "dies": 2134,
      "acks": 2135,
      "clu": 2136,
      "classi": 2137,
      "print": 2138,
      "plement": 2139,
      "find": 2140,
      "effort": 2141,
      "elected": 2142,
      "produced": 2143,
      "cape": 2144,
      "transcontinental": 2145,
      "numbers": 2146,
      "schol": 2147,
      "ethical": 2148,
      "novels": 2149,
      "ctively": 2150,
      "broad": 2151,
      "advoc": 2152,
      "legis": 2153,
      "birth": 2154,
      "spirit": 2155,
      "introduced": 2156,
      "administration": 2157,
      "candid": 2158,
      "techniques": 2159,
      "transportation": 2160,
      "average": 2161,
      "ancest": 2162,
      "museum": 2163,
      "william": 2164,
      "aq": 2165,
      "bast": 2166,
      "cil": 2167,
      "din": 2168,
      "dog": 2169,
      "jun": 2170,
      "jur": 2171,
      "makes": 2172,
      "spr": 2173,
      "taken": 2174,
      "uel": 2175,
      "wy": 2176,
      "thom": 2177,
      "inte": 2178,
      "onom": 2179,
      "orial": 2180,
      "ark": 2181,
      "oud": 2182,
      "tober": 2183,
      "sts": 2184,
      "ros": 2185,
      "role": 2186,
      "contr": 2187,
      "adic": 2188,
      "look": 2189,
      "emer": 2190,
      "except": 2191,
      "ellect": 2192,
      "goal": 2193,
      "actually": 2194,
      "ained": 2195,
      "isms": 2196,
      "team": 2197,
      "qual": 2198,
      "essay": 2199,
      "shall": 2200,
      "ought": 2201,
      "methane": 2202,
      "clus": 2203,
      "commit": 2204,
      "preser": 2205,
      "spain": 2206,
      "chemist": 2207,
      "germany": 2208,
      "events": 2209,
      "otic": 2210,
      "intellect": 2211,
      "flor": 2212,
      "normal": 2213,
      "alchemist": 2214,
      "october": 2215,
      "metic": 2216,
      "idea": 2217,
      "senate": 2218,
      "parli": 2219,
      "organization": 2220,
      "bring": 2221,
      "operation": 2222,
      "complex": 2223,
      "primary": 2224,
      "latter": 2225,
      "arabic": 2226,
      "vote": 2227,
      "structure": 2228,
      "ctrum": 2229,
      "sexual": 2230,
      "syndrome": 2231,
      "colorado": 2232,
      "experiment": 2233,
      "front": 2234,
      "young": 2235,
      "excavation": 2236,
      "library": 2237,
      "bru": 2238,
      "ey": 2239,
      "fel": 2240,
      "fall": 2241,
      "games": 2242,
      "ires": 2243,
      "ka": 2244,
      "mes": 2245,
      "mone": 2246,
      "mort": 2247,
      "pp": 2248,
      "pan": 2249,
      "rise": 2250,
      "sor": 2251,
      "scal": 2252,
      "wis": 2253,
      "wise": 2254,
      "era": 2255,
      "eria": 2256,
      "once": 2257,
      "ales": 2258,
      "almost": 2259,
      "andre": 2260,
      "tom": 2261,
      "sets": 2262,
      "ague": 2263,
      "adap": 2264,
      "cir": 2265,
      "mother": 2266,
      "soil": 2267,
      "phas": 2268,
      "died": 2269,
      "lie": 2270,
      "estim": 2271,
      "arts": 2272,
      "necess": 2273,
      "illance": 2274,
      "discovered": 2275,
      "iving": 2276,
      "commer": 2277,
      "commonly": 2278,
      "spectrum": 2279,
      "series": 2280,
      "elector": 2281,
      "highly": 2282,
      "fix": 2283,
      "true": 2284,
      "anthropologists": 2285,
      "included": 2286,
      "capt": 2287,
      "played": 2288,
      "miles": 2289,
      "ethics": 2290,
      "slaves": 2291,
      "office": 2292,
      "leader": 2293,
      "largely": 2294,
      "ready": 2295,
      "latin": 2296,
      "steel": 2297,
      "practice": 2298,
      "halley": 2299,
      "places": 2300,
      "growth": 2301,
      "surveillance": 2302,
      "understanding": 2303,
      "education": 2304,
      "relatively": 2305,
      "paper": 2306,
      "aware": 2307,
      "distinct": 2308,
      "wood": 2309,
      "amphib": 2310,
      "aid": 2311,
      "big": 2312,
      "bure": 2313,
      "cat": 2314,
      "ff": 2315,
      "foun": 2316,
      "fru": 2317,
      "hot": 2318,
      "ior": 2319,
      "paris": 2320,
      "pago": 2321,
      "ris": 2322,
      "sac": 2323,
      "tun": 2324,
      "taking": 2325,
      "vill": 2326,
      "wing": 2327,
      "ym": 2328,
      "ins": 2329,
      "ining": 2330,
      "inhab": 2331,
      "reject": 2332,
      "iso": 2333,
      "aring": 2334,
      "ash": 2335,
      "asph": 2336,
      "star": 2337,
      "stated": 2338,
      "condu": 2339,
      "agre": 2340,
      "race": 2341,
      "emphas": 2342,
      "proto": 2343,
      "river": 2344,
      "management": 2345,
      "going": 2346,
      "via": 2347,
      "ney": 2348,
      "afro": 2349,
      "codes": 2350,
      "ume": 2351,
      "prefer": 2352,
      "meas": 2353,
      "mechan": 2354,
      "disorders": 2355,
      "something": 2356,
      "genet": 2357,
      "pression": 2358,
      "americans": 2359,
      "finally": 2360,
      "mind": 2361,
      "workers": 2362,
      "myth": 2363,
      "organic": 2364,
      "greatest": 2365,
      "mix": 2366,
      "majority": 2367,
      "students": 2368,
      "kingdom": 2369,
      "statistics": 2370,
      "college": 2371,
      "avail": 2372,
      "radical": 2373,
      "says": 2374,
      "limited": 2375,
      "schools": 2376,
      "imately": 2377,
      "interests": 2378,
      "issue": 2379,
      "allowed": 2380,
      "associated": 2381,
      "friends": 2382,
      "approach": 2383,
      "turned": 2384,
      "recently": 2385,
      "egyptian": 2386,
      "located": 2387,
      "television": 2388,
      "logic": 2389,
      "nearly": 2390,
      "environmental": 2391,
      "objectivist": 2392,
      "learn": 2393,
      "communication": 2394,
      "future": 2395,
      "question": 2396,
      "quarter": 2397,
      "integr": 2398,
      "chemistry": 2399,
      "intellectual": 2400,
      "bes": 2401,
      "brought": 2402,
      "ible": 2403,
      "map": 2404,
      "mess": 2405,
      "obl": 2406,
      "uous": 2407,
      "vit": 2408,
      "thesis": 2409,
      "chall": 2410,
      "sebast": 2411,
      "cting": 2412,
      "beads": 2413,
      "ford": 2414,
      "twent": 2415,
      "imag": 2416,
      "conf": 2417,
      "conser": 2418,
      "super": 2419,
      "mode": 2420,
      "ull": 2421,
      "iron": 2422,
      "prom": 2423,
      "plan": 2424,
      "plast": 2425,
      "neigh": 2426,
      "strate": 2427,
      "noted": 2428,
      "rick": 2429,
      "feel": 2430,
      "previous": 2431,
      "meet": 2432,
      "ival": 2433,
      "mostly": 2434,
      "financi": 2435,
      "inton": 2436,
      "cultures": 2437,
      "product": 2438,
      "compan": 2439,
      "attach": 2440,
      "media": 2441,
      "represented": 2442,
      "singles": 2443,
      "personal": 2444,
      "philosophers": 2445,
      "empor": 2446,
      "employ": 2447,
      "motor": 2448,
      "require": 2449,
      "tennes": 2450,
      "types": 2451,
      "vietnam": 2452,
      "source": 2453,
      "professional": 2454,
      "freed": 2455,
      "masters": 2456,
      "assistive": 2457,
      "fiction": 2458,
      "discipline": 2459,
      "engineering": 2460,
      "fasc": 2461,
      "third": 2462,
      "department": 2463,
      "decision": 2464,
      "societies": 2465,
      "wyatt": 2466,
      "parliament": 2467,
      "bureau": 2468,
      "available": 2469,
      "bak": 2470,
      "bound": 2471,
      "gl": 2472,
      "game": 2473,
      "ko": 2474,
      "lilli": 2475,
      "mur": 2476,
      "mart": 2477,
      "mary": 2478,
      "nel": 2479,
      "oce": 2480,
      "oples": 2481,
      "pare": 2482,
      "stop": 2483,
      "wim": 2484,
      "thol": 2485,
      "thous": 2486,
      "online": 2487,
      "reaction": 2488,
      "alpha": 2489,
      "already": 2490,
      "ense": 2491,
      "asion": 2492,
      "asper": 2493,
      "ica": 2494,
      "ilities": 2495,
      "beaut": 2496,
      "forts": 2497,
      "imin": 2498,
      "implement": 2499,
      "lot": 2500,
      "love": 2501,
      "movie": 2502,
      "peoples": 2503,
      "note": 2504,
      "utions": 2505,
      "division": 2506,
      "libert": 2507,
      "across": 2508,
      "feed": 2509,
      "possib": 2510,
      "speaking": 2511,
      "weak": 2512,
      "counts": 2513,
      "type": 2514,
      "cathol": 2515,
      "alkane": 2516,
      "writers": 2517,
      "changes": 2518,
      "federer": 2519,
      "algerian": 2520,
      "laws": 2521,
      "topics": 2522,
      "pattern": 2523,
      "sively": 2524,
      "troy": 2525,
      "currently": 2526,
      "oxy": 2527,
      "potential": 2528,
      "independence": 2529,
      "lingu": 2530,
      "levels": 2531,
      "closely": 2532,
      "accepted": 2533,
      "straight": 2534,
      "activity": 2535,
      "separate": 2536,
      "expected": 2537,
      "whether": 2538,
      "benefit": 2539,
      "spoken": 2540,
      "branden": 2541,
      "numerous": 2542,
      "defeated": 2543,
      "pacific": 2544,
      "earlier": 2545,
      "stalin": 2546,
      "adopted": 2547,
      "private": 2548,
      "spring": 2549,
      "florida": 2550,
      "electoral": 2551,
      "sebastian": 2552,
      "tennessee": 2553,
      "lillian": 2554,
      "asperger": 2555,
      "az": 2556,
      "bin": 2557,
      "cru": 2558,
      "dig": 2559,
      "fight": 2560,
      "gri": 2561,
      "hold": 2562,
      "iers": 2563,
      "ium": 2564,
      "kh": 2565,
      "lon": 2566,
      "lap": 2567,
      "nes": 2568,
      "spl": 2569,
      "saf": 2570,
      "scre": 2571,
      "ties": 2572,
      "table": 2573,
      "wind": 2574,
      "ana": 2575,
      "edition": 2576,
      "aries": 2577,
      "ased": 2578,
      "ices": 2579,
      "itive": 2580,
      "semi": 2581,
      "vement": 2582,
      "veget": 2583,
      "whom": 2584,
      "ades": 2585,
      "logy": 2586,
      "uss": 2587,
      "powers": 2588,
      "promin": 2589,
      "dial": 2590,
      "lives": 2591,
      "estic": 2592,
      "opposed": 2593,
      "queen": 2594,
      "derived": 2595,
      "clinton": 2596,
      "bledon": 2597,
      "proud": 2598,
      "whole": 2599,
      "ending": 2600,
      "izations": 2601,
      "australians": 2602,
      "doctr": 2603,
      "served": 2604,
      "corrupt": 2605,
      "jose": 2606,
      "elements": 2607,
      "vict": 2608,
      "basis": 2609,
      "medic": 2610,
      "communities": 2611,
      "bio": 2612,
      "sett": 2613,
      "regions": 2614,
      "july": 2615,
      "followed": 2616,
      "matter": 2617,
      "appare": 2618,
      "films": 2619,
      "tai": 2620,
      "tax": 2621,
      "radi": 2622,
      "brother": 2623,
      "saying": 2624,
      "capitalism": 2625,
      "defined": 2626,
      "definition": 2627,
      "typically": 2628,
      "provide": 2629,
      "widely": 2630,
      "sources": 2631,
      "richard": 2632,
      "chloro": 2633,
      "www": 2634,
      "dominant": 2635,
      "reached": 2636,
      "pigs": 2637,
      "favor": 2638,
      "henry": 2639,
      "killed": 2640,
      "phenomen": 2641,
      "crops": 2642,
      "temper": 2643,
      "citiz": 2644,
      "looters": 2645,
      "controversial": 2646,
      "journal": 2647,
      "amount": 2648,
      "money": 2649,
      "asphalt": 2650,
      "financial": 2651,
      "wimbledon": 2652,
      "thousand": 2653,
      "crow": 2654,
      "ego": 2655,
      "haps": 2656,
      "ith": 2657,
      "llan": 2658,
      "nu": 2659,
      "pus": 2660,
      "pain": 2661,
      "slo": 2662,
      "tt": 2663,
      "tis": 2664,
      "tar": 2665,
      "van": 2666,
      "wr": 2667,
      "insp": 2668,
      "ano": 2669,
      "theo": 2670,
      "rebell": 2671,
      "icians": 2672,
      "ston": 2673,
      "style": 2674,
      "legen": 2675,
      "sept": 2676,
      "dem": 2677,
      "forced": 2678,
      "suf": 2679,
      "loss": 2680,
      "abol": 2681,
      "phr": 2682,
      "poet": 2683,
      "compl": 2684,
      "compet": 2685,
      "promo": 2686,
      "applic": 2687,
      "lian": 2688,
      "reser": 2689,
      "resist": 2690,
      "manif": 2691,
      "mental": 2692,
      "ounced": 2693,
      "quick": 2694,
      "perhaps": 2695,
      "iful": 2696,
      "answer": 2697,
      "pris": 2698,
      "command": 2699,
      "fication": 2700,
      "assass": 2701,
      "evil": 2702,
      "counter": 2703,
      "serve": 2704,
      "greater": 2705,
      "mainly": 2706,
      "tained": 2707,
      "valley": 2708,
      "difference": 2709,
      "players": 2710,
      "anese": 2711,
      "months": 2712,
      "represents": 2713,
      "reference": 2714,
      "cushit": 2715,
      "particip": 2716,
      "director": 2717,
      "helped": 2718,
      "patri": 2719,
      "remaining": 2720,
      "claims": 2721,
      "primarily": 2722,
      "colonies": 2723,
      "purpose": 2724,
      "authoritarian": 2725,
      "bank": 2726,
      "banks": 2727,
      "studied": 2728,
      "territories": 2729,
      "strongly": 2730,
      "methyl": 2731,
      "scientists": 2732,
      "labour": 2733,
      "provided": 2734,
      "receive": 2735,
      "objectivism": 2736,
      "website": 2737,
      "syndical": 2738,
      "brid": 2739,
      "debate": 2740,
      "aught": 2741,
      "increasingly": 2742,
      "problems": 2743,
      "census": 2744,
      "iraq": 2745,
      "multi": 2746,
      "metaphysics": 2747,
      "probably": 2748,
      "fifth": 2749,
      "contrast": 2750,
      "catholic": 2751,
      "oxygen": 2752,
      "screen": 2753,
      "joseph": 2754,
      "apparent": 2755,
      "cushitic": 2756,
      "aqu": 2757,
      "done": 2758,
      "mun": 2759,
      "nut": 2760,
      "pict": 2761,
      "ti": 2762,
      "uck": 2763,
      "went": 2764,
      "yet": 2765,
      "insu": 2766,
      "instru": 2767,
      "remo": 2768,
      "replaced": 2769,
      "alb": 2770,
      "altern": 2771,
      "albert": 2772,
      "enjo": 2773,
      "edited": 2774,
      "astr": 2775,
      "chadic": 2776,
      "sell": 2777,
      "ention": 2778,
      "dece": 2779,
      "deta": 2780,
      "determin": 2781,
      "forum": 2782,
      "adult": 2783,
      "los": 2784,
      "pete": 2785,
      "soon": 2786,
      "ember": 2787,
      "proton": 2788,
      "export": 2789,
      "lif": 2790,
      "goods": 2791,
      "ops": 2792,
      "opposition": 2793,
      "ills": 2794,
      "affe": 2795,
      "cost": 2796,
      "covery": 2797,
      "febru": 2798,
      "astro": 2799,
      "grad": 2800,
      "achie": 2801,
      "mathem": 2802,
      "efforts": 2803,
      "eval": 2804,
      "mines": 2805,
      "wee": 2806,
      "council": 2807,
      "marx": 2808,
      "married": 2809,
      "soul": 2810,
      "southeast": 2811,
      "transl": 2812,
      "surround": 2813,
      "england": 2814,
      "anthropological": 2815,
      "medical": 2816,
      "bond": 2817,
      "strugg": 2818,
      "universe": 2819,
      "communism": 2820,
      "senator": 2821,
      "cali": 2822,
      "region": 2823,
      "likely": 2824,
      "specif": 2825,
      "fund": 2826,
      "distric": 2827,
      "distribut": 2828,
      "harv": 2829,
      "commonwealth": 2830,
      "republicans": 2831,
      "remained": 2832,
      "build": 2833,
      "leaders": 2834,
      "male": 2835,
      "david": 2836,
      "pursu": 2837,
      "argue": 2838,
      "argued": 2839,
      "developmental": 2840,
      "break": 2841,
      "market": 2842,
      "friend": 2843,
      "existed": 2844,
      "reports": 2845,
      "literature": 2846,
      "champion": 2847,
      "substances": 2848,
      "occupied": 2849,
      "columb": 2850,
      "suggest": 2851,
      "chief": 2852,
      "conflict": 2853,
      "mexico": 2854,
      "thomas": 2855,
      "scale": 2856,
      "beautiful": 2857,
      "september": 2858,
      "february": 2859,
      "ah": 2860,
      "ax": 2861,
      "avi": 2862,
      "cm": 2863,
      "cross": 2864,
      "ius": 2865,
      "jap": 2866,
      "kj": 2867,
      "leng": 2868,
      "mn": 2869,
      "nia": 2870,
      "pse": 2871,
      "tas": 2872,
      "trop": 2873,
      "yiel": 2874,
      "thy": 2875,
      "ince": 2876,
      "anthem": 2877,
      "anced": 2878,
      "enco": 2879,
      "encour": 2880,
      "assu": 2881,
      "aspe": 2882,
      "iting": 2883,
      "itative": 2884,
      "ouch": 2885,
      "ingu": 2886,
      "roger": 2887,
      "sem": 2888,
      "ils": 2889,
      "deli": 2890,
      "conformation": 2891,
      "heard": 2892,
      "cia": 2893,
      "ours": 2894,
      "peace": 2895,
      "utive": 2896,
      "proposed": 2897,
      "protest": 2898,
      "extra": 2899,
      "die": 2900,
      "mentary": 2901,
      "oppon": 2902,
      "illu": 2903,
      "telian": 2904,
      "dered": 2905,
      "bot": 2906,
      "rice": 2907,
      "formal": 2908,
      "contempor": 2909,
      "display": 2910,
      "ranked": 2911,
      "autistics": 2912,
      "assign": 2913,
      "space": 2914,
      "desc": 2915,
      "intell": 2916,
      "flight": 2917,
      "upper": 2918,
      "generation": 2919,
      "appeared": 2920,
      "highest": 2921,
      "fire": 2922,
      "truth": 2923,
      "aristotelian": 2924,
      "writer": 2925,
      "player": 2926,
      "examples": 2927,
      "full": 2928,
      "algiers": 2929,
      "famil": 2930,
      "ification": 2931,
      "conditions": 2932,
      "signed": 2933,
      "slave": 2934,
      "statist": 2935,
      "collection": 2936,
      "authority": 2937,
      "elections": 2938,
      "reported": 2939,
      "principles": 2940,
      "completely": 2941,
      "fictional": 2942,
      "snowball": 2943,
      "situation": 2944,
      "cells": 2945,
      "confederate": 2946,
      "islamic": 2947,
      "season": 2948,
      "legisl": 2949,
      "spiritual": 2950,
      "necessary": 2951,
      "awareness": 2952,
      "obligation": 2953,
      "split": 2954,
      "proudhon": 2955,
      "wrong": 2956,
      "rebellion": 2957,
      "december": 2958,
      "intellig": 2959,
      "aven": 2960,
      "bab": 2961,
      "bud": 2962,
      "cut": 2963,
      "cused": 2964,
      "fuel": 2965,
      "gain": 2966,
      "gives": 2967,
      "here": 2968,
      "harm": 2969,
      "kel": 2970,
      "ny": 2971,
      "ore": 2972,
      "ots": 2973,
      "ping": 2974,
      "rat": 2975,
      "sof": 2976,
      "sand": 2977,
      "sess": 2978,
      "va": 2979,
      "vant": 2980,
      "wil": 2981,
      "zo": 2982,
      "err": 2983,
      "theless": 2984,
      "theories": 2985,
      "rect": 2986,
      "aler": 2987,
      "enough": 2988,
      "attra": 2989,
      "orwell": 2990,
      "arran": 2991,
      "ites": 2992,
      "stad": 2993,
      "step": 2994,
      "stories": 2995,
      "ched": 2996,
      "china": 2997,
      "leo": 2998,
      "seed": 2999,
      "ctic": 3000,
      "iling": 3001,
      "omet": 3002,
      "amin": 3003,
      "forces": 3004,
      "cons": 3005,
      "convent": 3006,
      "utc": 3007,
      "uted": 3008,
      "phere": 3009,
      "phos": 3010,
      "exact": 3011,
      "exec": 3012,
      "divers": 3013,
      "aug": 3014,
      "acces": 3015,
      "goals": 3016,
      "vies": 3017,
      "shown": 3018,
      "otherwise": 3019,
      "geography": 3020,
      "warming": 3021,
      "context": 3022,
      "achi": 3023,
      "udo": 3024,
      "ivism": 3025,
      "pressed": 3026,
      "hermes": 3027,
      "specul": 3028,
      "ota": 3029,
      "docu": 3030,
      "correspon": 3031,
      "lled": 3032,
      "compon": 3033,
      "basic": 3034,
      "myster": 3035,
      "calcul": 3036,
      "organized": 3037,
      "centuries": 3038,
      "nathan": 3039,
      "moroc": 3040,
      "letters": 3041,
      "domestic": 3042,
      "annes": 3043,
      "homo": 3044,
      "critical": 3045,
      "host": 3046,
      "avo": 3047,
      "radar": 3048,
      "easily": 3049,
      "purch": 3050,
      "reading": 3051,
      "classical": 3052,
      "sky": 3053,
      "angle": 3054,
      "academic": 3055,
      "reasons": 3056,
      "marked": 3057,
      "ograph": 3058,
      "running": 3059,
      "needs": 3060,
      "phoen": 3061,
      "additional": 3062,
      "literary": 3063,
      "frame": 3064,
      "learning": 3065,
      "judic": 3066,
      "activities": 3067,
      "honor": 3068,
      "branched": 3069,
      "entirely": 3070,
      "selection": 3071,
      "defendant": 3072,
      "square": 3073,
      "promise": 3074,
      "attached": 3075,
      "freedom": 3076,
      "ocean": 3077,
      "alphabet": 3078,
      "medicine": 3079,
      "sloven": 3080,
      "astronom": 3081,
      "pseudo": 3082,
      "diversity": 3083,
      "bul": 3084,
      "cum": 3085,
      "cular": 3086,
      "cases": 3087,
      "dol": 3088,
      "dri": 3089,
      "ethane": 3090,
      "fat": 3091,
      "fish": 3092,
      "gs": 3093,
      "hus": 3094,
      "hop": 3095,
      "len": 3096,
      "mol": 3097,
      "oh": 3098,
      "pto": 3099,
      "pent": 3100,
      "sha": 3101,
      "sport": 3102,
      "sions": 3103,
      "sque": 3104,
      "vow": 3105,
      "wom": 3106,
      "wel": 3107,
      "wild": 3108,
      "anz": 3109,
      "ont": 3110,
      "oned": 3111,
      "rely": 3112,
      "reli": 3113,
      "reconstruction": 3114,
      "alism": 3115,
      "atory": 3116,
      "isation": 3117,
      "icted": 3118,
      "too": 3119,
      "stre": 3120,
      "entially": 3121,
      "entered": 3122,
      "iger": 3123,
      "igan": 3124,
      "fornia": 3125,
      "immig": 3126,
      "conv": 3127,
      "conver": 3128,
      "consequ": 3129,
      "unity": 3130,
      "mob": 3131,
      "movies": 3132,
      "peter": 3133,
      "rap": 3134,
      "sole": 3135,
      "wife": 3136,
      "emir": 3137,
      "poor": 3138,
      "proceed": 3139,
      "audi": 3140,
      "acqu": 3141,
      "access": 3142,
      "quant": 3143,
      "quality": 3144,
      "boy": 3145,
      "perform": 3146,
      "ously": 3147,
      "contain": 3148,
      "ivation": 3149,
      "ption": 3150,
      "interaction": 3151,
      "anarchy": 3152,
      "desire": 3153,
      "eved": 3154,
      "seek": 3155,
      "victor": 3156,
      "caus": 3157,
      "save": 3158,
      "transmut": 3159,
      "larger": 3160,
      "airport": 3161,
      "course": 3162,
      "volume": 3163,
      "arith": 3164,
      "fully": 3165,
      "biography": 3166,
      "organizations": 3167,
      "nav": 3168,
      "oscar": 3169,
      "perspe": 3170,
      "regular": 3171,
      "ethi": 3172,
      "representation": 3173,
      "extre": 3174,
      "origins": 3175,
      "variety": 3176,
      "clellan": 3177,
      "equal": 3178,
      "patrick": 3179,
      "collect": 3180,
      "requires": 3181,
      "critics": 3182,
      "refers": 3183,
      "positions": 3184,
      "solid": 3185,
      "leading": 3186,
      "address": 3187,
      "daily": 3188,
      "trojan": 3189,
      "objects": 3190,
      "democrats": 3191,
      "voting": 3192,
      "fairbanks": 3193,
      "half": 3194,
      "youth": 3195,
      "typical": 3196,
      "appropri": 3197,
      "cule": 3198,
      "growing": 3199,
      "nomin": 3200,
      "nomine": 3201,
      "articles": 3202,
      "teleph": 3203,
      "drawn": 3204,
      "symbols": 3205,
      "functioning": 3206,
      "started": 3207,
      "concepts": 3208,
      "treatment": 3209,
      "tourism": 3210,
      "doug": 3211,
      "initially": 3212,
      "connected": 3213,
      "problem": 3214,
      "violence": 3215,
      "interpret": 3216,
      "mcclellan": 3217,
      "sahara": 3218,
      "saharan": 3219,
      "feminist": 3220,
      "teenth": 3221,
      "frequently": 3222,
      "experience": 3223,
      "football": 3224,
      "built": 3225,
      "amoebo": 3226,
      "duty": 3227,
      "indeed": 3228,
      "candidate": 3229,
      "essays": 3230,
      "committe": 3231,
      "message": 3232,
      "strategy": 3233,
      "companies": 3234,
      "paren": 3235,
      "libertarian": 3236,
      "prominent": 3237,
      "doctrine": 3238,
      "victory": 3239,
      "chloroplast": 3240,
      "theoret": 3241,
      "album": 3242,
      "enjoy": 3243,
      "california": 3244,
      "japanese": 3245,
      "families": 3246,
      "consists": 3247,
      "nathaniel": 3248,
      "bing": 3249,
      "burn": 3250,
      "cure": 3251,
      "dam": 3252,
      "daugh": 3253,
      "dannes": 3254,
      "gif": 3255,
      "hur": 3256,
      "hum": 3257,
      "lant": 3258,
      "mach": 3259,
      "nit": 3260,
      "pul": 3261,
      "page": 3262,
      "pair": 3263,
      "pie": 3264,
      "ring": 3265,
      "rate": 3266,
      "ragn": 3267,
      "slow": 3268,
      "slight": 3269,
      "sburg": 3270,
      "spread": 3271,
      "takes": 3272,
      "taught": 3273,
      "vations": 3274,
      "wit": 3275,
      "wall": 3276,
      "ying": 3277,
      "zone": 3278,
      "ink": 3279,
      "onic": 3280,
      "thetic": 3281,
      "reci": 3282,
      "reform": 3283,
      "alleg": 3284,
      "ene": 3285,
      "atch": 3286,
      "edia": 3287,
      "arrow": 3288,
      "stay": 3289,
      "stable": 3290,
      "leus": 3291,
      "league": 3292,
      "omotic": 3293,
      "becomes": 3294,
      "dead": 3295,
      "hector": 3296,
      "heav": 3297,
      "hetor": 3298,
      "ulate": 3299,
      "pods": 3300,
      "rid": 3301,
      "lived": 3302,
      "ression": 3303,
      "acteria": 3304,
      "notably": 3305,
      "board": 3306,
      "prevent": 3307,
      "ansas": 3308,
      "clam": 3309,
      "parties": 3310,
      "guil": 3311,
      "guide": 3312,
      "dissoci": 3313,
      "discover": 3314,
      "portray": 3315,
      "cold": 3316,
      "poses": 3317,
      "herit": 3318,
      "kept": 3319,
      "publishing": 3320,
      "doing": 3321,
      "travel": 3322,
      "lling": 3323,
      "creation": 3324,
      "fied": 3325,
      "attribut": 3326,
      "cyan": 3327,
      "visions": 3328,
      "india": 3329,
      "crimin": 3330,
      "ideal": 3331,
      "cking": 3332,
      "capable": 3333,
      "settle": 3334,
      "universities": 3335,
      "longer": 3336,
      "characteristics": 3337,
      "dency": 3338,
      "originally": 3339,
      "importance": 3340,
      "applied": 3341,
      "cracy": 3342,
      "refle": 3343,
      "mission": 3344,
      "mitted": 3345,
      "prime": 3346,
      "delph": 3347,
      "delay": 3348,
      "ski": 3349,
      "advance": 3350,
      "constant": 3351,
      "religions": 3352,
      "austro": 3353,
      "resulting": 3354,
      "voted": 3355,
      "believes": 3356,
      "micha": 3357,
      "destru": 3358,
      "peninsu": 3359,
      "rules": 3360,
      "beginning": 3361,
      "copper": 3362,
      "electron": 3363,
      "regarded": 3364,
      "boxer": 3365,
      "decided": 3366,
      "texts": 3367,
      "classification": 3368,
      "scholars": 3369,
      "june": 3370,
      "estimated": 3371,
      "rejected": 3372,
      "settled": 3373,
      "inspired": 3374,
      "phrase": 3375,
      "quickly": 3376,
      "bridge": 3377,
      "alternative": 3378,
      "mathemat": 3379,
      "specifically": 3380,
      "distribution": 3381,
      "columbia": 3382,
      "aspects": 3383,
      "morocco": 3384,
      "douglas": 3385,
      "parents": 3386,
      "danneskj": 3387,
      "ragnar": 3388,
      "bic": 3389,
      "cab": 3390,
      "cry": 3391,
      "cnt": 3392,
      "dim": 3393,
      "eign": 3394,
      "ease": 3395,
      "fag": 3396,
      "fra": 3397,
      "fred": 3398,
      "gor": 3399,
      "gun": 3400,
      "hed": 3401,
      "hous": 3402,
      "ix": 3403,
      "jer": 3404,
      "mh": 3405,
      "ose": 3406,
      "pation": 3407,
      "pages": 3408,
      "rhetor": 3409,
      "sil": 3410,
      "sory": 3411,
      "tut": 3412,
      "vas": 3413,
      "vast": 3414,
      "voc": 3415,
      "wan": 3416,
      "wish": 3417,
      "winter": 3418,
      "walk": 3419,
      "xim": 3420,
      "zer": 3421,
      "zed": 3422,
      "thre": 3423,
      "inth": 3424,
      "eral": 3425,
      "reven": 3426,
      "align": 3427,
      "ened": 3428,
      "atlant": 3429,
      "asian": 3430,
      "anda": 3431,
      "told": 3432,
      "todd": 3433,
      "roads": 3434,
      "sey": 3435,
      "seward": 3436,
      "vember": 3437,
      "becoming": 3438,
      "dete": 3439,
      "congo": 3440,
      "vereign": 3441,
      "aband": 3442,
      "abuse": 3443,
      "abilities": 3444,
      "cies": 3445,
      "mos": 3446,
      "users": 3447,
      "november": 3448,
      "urban": 3449,
      "sovereign": 3450,
      "wides": 3451,
      "emanci": 3452,
      "proclam": 3453,
      "ria": 3454,
      "appoint": 3455,
      "lip": 3456,
      "auto": 3457,
      "accur": 3458,
      "fourth": 3459,
      "artif": 3460,
      "artef": 3461,
      "gods": 3462,
      "plus": 3463,
      "actual": 3464,
      "netw": 3465,
      "aint": 3466,
      "opin": 3467,
      "archy": 3468,
      "quite": 3469,
      "covers": 3470,
      "notes": 3471,
      "boyle": 3472,
      "formations": 3473,
      "ansion": 3474,
      "butane": 3475,
      "somewhat": 3476,
      "odys": 3477,
      "desert": 3478,
      "africans": 3479,
      "publish": 3480,
      "philip": 3481,
      "relations": 3482,
      "carried": 3483,
      "join": 3484,
      "joined": 3485,
      "strik": 3486,
      "grew": 3487,
      "presented": 3488,
      "willing": 3489,
      "anything": 3490,
      "capability": 3491,
      "bonds": 3492,
      "foundation": 3493,
      "continue": 3494,
      "biological": 3495,
      "organisms": 3496,
      "ethnic": 3497,
      "instance": 3498,
      "mont": 3499,
      "etym": 3500,
      "distingu": 3501,
      "condition": 3502,
      "dens": 3503,
      "anner": 3504,
      "directed": 3505,
      "equival": 3506,
      "officially": 3507,
      "childhood": 3508,
      "dependent": 3509,
      "bust": 3510,
      "winning": 3511,
      "expansion": 3512,
      "response": 3513,
      "nevertheless": 3514,
      "structures": 3515,
      "branches": 3516,
      "passed": 3517,
      "logical": 3518,
      "received": 3519,
      "concerto": 3520,
      "extensive": 3521,
      "directly": 3522,
      "identify": 3523,
      "treaty": 3524,
      "choice": 3525,
      "beliefs": 3526,
      "initi": 3527,
      "propane": 3528,
      "relationships": 3529,
      "dream": 3530,
      "molecule": 3531,
      "diagnosis": 3532,
      "horse": 3533,
      "figures": 3534,
      "aleut": 3535,
      "minority": 3536,
      "pyth": 3537,
      "affairs": 3538,
      "blood": 3539,
      "tells": 3540,
      "decades": 3541,
      "juris": 3542,
      "commercial": 3543,
      "ymp": 3544,
      "inhabited": 3545,
      "possibly": 3546,
      "patterns": 3547,
      "suffer": 3548,
      "picture": 3549,
      "length": 3550,
      "tropical": 3551,
      "deliver": 3552,
      "illustr": 3553,
      "statistical": 3554,
      "accessible": 3555,
      "avoid": 3556,
      "husband": 3557,
      "arithmetic": 3558,
      "perspective": 3559,
      "ethiop": 3560,
      "extreme": 3561,
      "theoretical": 3562,
      "cyanob": 3563,
      "widespread": 3564,
      "proclamation": 3565,
      "aer": 3566,
      "aes": 3567,
      "ather": 3568,
      "athen": 3569,
      "bun": 3570,
      "clop": 3571,
      "cattle": 3572,
      "dur": 3573,
      "date": 3574,
      "ean": 3575,
      "fal": 3576,
      "fast": 3577,
      "gers": 3578,
      "ivers": 3579,
      "kro": 3580,
      "kings": 3581,
      "nick": 3582,
      "pra": 3583,
      "pay": 3584,
      "ror": 3585,
      "sight": 3586,
      "tv": 3587,
      "tes": 3588,
      "tall": 3589,
      "talk": 3590,
      "want": 3591,
      "ximately": 3592,
      "za": 3593,
      "inaug": 3594,
      "ond": 3595,
      "theme": 3596,
      "reactions": 3597,
      "alone": 3598,
      "enem": 3599,
      "icated": 3600,
      "station": 3601,
      "stree": 3602,
      "lewis": 3603,
      "sector": 3604,
      "olymp": 3605,
      "bey": 3606,
      "degree": 3607,
      "size": 3608,
      "imal": 3609,
      "why": 3610,
      "concent": 3611,
      "unin": 3612,
      "unit": 3613,
      "unlike": 3614,
      "unders": 3615,
      "hex": 3616,
      "hearing": 3617,
      "usion": 3618,
      "petro": 3619,
      "racial": 3620,
      "irical": 3621,
      "apart": 3622,
      "appre": 3623,
      "div": 3624,
      "divisions": 3625,
      "liqu": 3626,
      "manner": 3627,
      "acres": 3628,
      "actor": 3629,
      "acting": 3630,
      "neg": 3631,
      "illed": 3632,
      "worship": 3633,
      "strateg": 3634,
      "cooperation": 3635,
      "notable": 3636,
      "share": 3637,
      "shot": 3638,
      "percent": 3639,
      "pervas": 3640,
      "grounds": 3641,
      "contact": 3642,
      "partly": 3643,
      "fertil": 3644,
      "ivity": 3645,
      "canada": 3646,
      "spect": 3647,
      "fail": 3648,
      "otes": 3649,
      "intent": 3650,
      "county": 3651,
      "job": 3652,
      "margin": 3653,
      "worked": 3654,
      "forests": 3655,
      "subsequ": 3656,
      "developing": 3657,
      "create": 3658,
      "creating": 3659,
      "attention": 3660,
      "courts": 3661,
      "mystic": 3662,
      "cris": 3663,
      "selfish": 3664,
      "biology": 3665,
      "ethno": 3666,
      "prize": 3667,
      "samo": 3668,
      "representatives": 3669,
      "greeks": 3670,
      "virgin": 3671,
      "greatly": 3672,
      "anned": 3673,
      "announced": 3674,
      "altruistic": 3675,
      "paul": 3676,
      "radio": 3677,
      "traditions": 3678,
      "traditionally": 3679,
      "authors": 3680,
      "finalist": 3681,
      "millions": 3682,
      "everything": 3683,
      "iously": 3684,
      "powerful": 3685,
      "profit": 3686,
      "britain": 3687,
      "allows": 3688,
      "defense": 3689,
      "dram": 3690,
      "institutions": 3691,
      "zeus": 3692,
      "describe": 3693,
      "processes": 3694,
      "structural": 3695,
      "approximately": 3696,
      "micro": 3697,
      "records": 3698,
      "sister": 3699,
      "occasion": 3700,
      "psychological": 3701,
      "starting": 3702,
      "principle": 3703,
      "attempted": 3704,
      "clearly": 3705,
      "heroes": 3706,
      "constitutional": 3707,
      "brief": 3708,
      "russia": 3709,
      "doub": 3710,
      "subjects": 3711,
      "investment": 3712,
      "projects": 3713,
      "disciplines": 3714,
      "benefits": 3715,
      "evolutionary": 3716,
      "mutual": 3717,
      "virtue": 3718,
      "secretary": 3719,
      "equipment": 3720,
      "selected": 3721,
      "photosyn": 3722,
      "models": 3723,
      "protection": 3724,
      "building": 3725,
      "gulch": 3726,
      "repeated": 3727,
      "categories": 3728,
      "sorob": 3729,
      "amphibians": 3730,
      "founder": 3731,
      "genetic": 3732,
      "conserv": 3733,
      "neighbour": 3734,
      "previously": 3735,
      "bakunin": 3736,
      "dialect": 3737,
      "egoism": 3738,
      "abolition": 3739,
      "astrology": 3740,
      "contemporary": 3741,
      "softw": 3742,
      "phosph": 3743,
      "squealer": 3744,
      "vowel": 3745,
      "woman": 3746,
      "stream": 3747,
      "convinc": 3748,
      "chloroplasts": 3749,
      "guilty": 3750,
      "settlement": 3751,
      "peninsula": 3752,
      "mhz": 3753,
      "emancipation": 3754,
      "artifacts": 3755,
      "strikers": 3756,
      "jurisdict": 3757,
      "pervasive": 3758,
      "eh": 3759,
      "eli": 3760,
      "fle": 3761,
      "giving": 3762,
      "hay": 3763,
      "hours": 3764,
      "iat": 3765,
      "ios": 3766,
      "jes": 3767,
      "jim": 3768,
      "jac": 3769,
      "jones": 3770,
      "ls": 3771,
      "lake": 3772,
      "mir": 3773,
      "mere": 3774,
      "magn": 3775,
      "rh": 3776,
      "smi": 3777,
      "tat": 3778,
      "tet": 3779,
      "ture": 3780,
      "uation": 3781,
      "wal": 3782,
      "wales": 3783,
      "inqu": 3784,
      "onaut": 3785,
      "restr": 3786,
      "alan": 3787,
      "aled": 3788,
      "alli": 3789,
      "enh": 3790,
      "atmos": 3791,
      "isa": 3792,
      "escape": 3793,
      "arg": 3794,
      "asp": 3795,
      "itch": 3796,
      "tool": 3797,
      "tood": 3798,
      "stam": 3799,
      "stations": 3800,
      "chap": 3801,
      "room": 3802,
      "roclus": 3803,
      "older": 3804,
      "omach": 3805,
      "lying": 3806,
      "lywood": 3807,
      "belong": 3808,
      "defeat": 3809,
      "sipp": 3810,
      "conce": 3811,
      "connor": 3812,
      "conclus": 3813,
      "agree": 3814,
      "sust": 3815,
      "loot": 3816,
      "heart": 3817,
      "heaven": 3818,
      "abst": 3819,
      "comed": 3820,
      "compe": 3821,
      "compromise": 3822,
      "ries": 3823,
      "rific": 3824,
      "exchange": 3825,
      "exclu": 3826,
      "aud": 3827,
      "account": 3828,
      "accounts": 3829,
      "else": 3830,
      "incor": 3831,
      "essence": 3832,
      "ologist": 3833,
      "bob": 3834,
      "boas": 3835,
      "sher": 3836,
      "berg": 3837,
      "predominant": 3838,
      "tended": 3839,
      "discovery": 3840,
      "disease": 3841,
      "fert": 3842,
      "portu": 3843,
      "someone": 3844,
      "prise": 3845,
      "prince": 3846,
      "presence": 3847,
      "collap": 3848,
      "izes": 3849,
      "possess": 3850,
      "hermetic": 3851,
      "speed": 3852,
      "finds": 3853,
      "failed": 3854,
      "weather": 3855,
      "firm": 3856,
      "charge": 3857,
      "animated": 3858,
      "carry": 3859,
      "armed": 3860,
      "train": 3861,
      "marine": 3862,
      "obvious": 3863,
      "mainland": 3864,
      "owned": 3865,
      "asked": 3866,
      "surre": 3867,
      "compat": 3868,
      "comput": 3869,
      "attack": 3870,
      "bases": 3871,
      "standing": 3872,
      "ario": 3873,
      "viewed": 3874,
      "days": 3875,
      "europeans": 3876,
      "mond": 3877,
      "ships": 3878,
      "topic": 3879,
      "philosophies": 3880,
      "sulfur": 3881,
      "direction": 3882,
      "patroclus": 3883,
      "altruist": 3884,
      "altruists": 3885,
      "required": 3886,
      "hope": 3887,
      "muslim": 3888,
      "sissipp": 3889,
      "claiming": 3890,
      "influential": 3891,
      "mississipp": 3892,
      "solution": 3893,
      "effective": 3894,
      "treated": 3895,
      "titles": 3896,
      "advanced": 3897,
      "stephen": 3898,
      "allowing": 3899,
      "bolshe": 3900,
      "practical": 3901,
      "fried": 3902,
      "cules": 3903,
      "golden": 3904,
      "voice": 3905,
      "gather": 3906,
      "smaller": 3907,
      "leonard": 3908,
      "existence": 3909,
      "minister": 3910,
      "historic": 3911,
      "hands": 3912,
      "iii": 3913,
      "hollywood": 3914,
      "extended": 3915,
      "psychology": 3916,
      "christianity": 3917,
      "judg": 3918,
      "revolutionary": 3919,
      "tournam": 3920,
      "encyclop": 3921,
      "coastal": 3922,
      "criticized": 3923,
      "discussion": 3924,
      "nicomach": 3925,
      "graphic": 3926,
      "magaz": 3927,
      "improve": 3928,
      "improved": 3929,
      "wheat": 3930,
      "drew": 3931,
      "impair": 3932,
      "molecules": 3933,
      "reduced": 3934,
      "seems": 3935,
      "violent": 3936,
      "equipped": 3937,
      "pione": 3938,
      "invented": 3939,
      "alien": 3940,
      "thinkers": 3941,
      "texas": 3942,
      "diesel": 3943,
      "club": 3944,
      "broadcast": 3945,
      "ancestry": 3946,
      "mortal": 3947,
      "sacred": 3948,
      "conduct": 3949,
      "emphasis": 3950,
      "challen": 3951,
      "twenty": 3952,
      "springfield": 3953,
      "radiation": 3954,
      "citizen": 3955,
      "legend": 3956,
      "nutrit": 3957,
      "aviation": 3958,
      "descend": 3959,
      "arrang": 3960,
      "executive": 3961,
      "achieved": 3962,
      "dollar": 3963,
      "mobile": 3964,
      "emirates": 3965,
      "committee": 3966,
      "criminal": 3967,
      "michael": 3968,
      "equivalent": 3969,
      "understood": 3970,
      "virginia": 3971,
      "doubt": 3972,
      "soroban": 3973,
      "software": 3974,
      "athe": 3975,
      "bli": 3976,
      "brow": 3977,
      "cup": 3978,
      "dated": 3979,
      "dence": 3980,
      "dred": 3981,
      "dry": 3982,
      "evi": 3983,
      "fis": 3984,
      "fit": 3985,
      "fro": 3986,
      "flo": 3987,
      "fare": 3988,
      "flow": 3989,
      "fought": 3990,
      "hil": 3991,
      "hid": 3992,
      "ique": 3993,
      "ker": 3994,
      "kent": 3995,
      "lou": 3996,
      "mally": 3997,
      "none": 3998,
      "pg": 3999,
      "pil": 4000,
      "rout": 4001,
      "sound": 4002,
      "tree": 4003,
      "tors": 4004,
      "uat": 4005,
      "wol": 4006,
      "wear": 4007,
      "ya": 4008,
      "zoa": 4009,
      "inary": 4010,
      "ango": 4011,
      "theor": 4012,
      "reve": 4013,
      "isom": 4014,
      "arl": 4015,
      "asa": 4016,
      "icit": 4017,
      "ito": 4018,
      "oute": 4019,
      "tol": 4020,
      "stren": 4021,
      "chair": 4022,
      "chron": 4023,
      "leto": 4024,
      "leum": 4025,
      "root": 4026,
      "beings": 4027,
      "deal": 4028,
      "device": 4029,
      "forman": 4030,
      "agency": 4031,
      "unknown": 4032,
      "unico": 4033,
      "loved": 4034,
      "ables": 4035,
      "moving": 4036,
      "user": 4037,
      "nothing": 4038,
      "aret": 4039,
      "ems": 4040,
      "eman": 4041,
      "emis": 4042,
      "composed": 4043,
      "proved": 4044,
      "protic": 4045,
      "progress": 4046,
      "expression": 4047,
      "apt": 4048,
      "resh": 4049,
      "accompl": 4050,
      "plain": 4051,
      "afc": 4052,
      "dering": 4053,
      "essentially": 4054,
      "ologies": 4055,
      "strict": 4056,
      "cool": 4057,
      "cosm": 4058,
      "bow": 4059,
      "geomet": 4060,
      "fect": 4061,
      "feet": 4062,
      "ulture": 4063,
      "ultimately": 4064,
      "iff": 4065,
      "warded": 4066,
      "blue": 4067,
      "disput": 4068,
      "disabilities": 4069,
      "portion": 4070,
      "lowest": 4071,
      "ivated": 4072,
      "focused": 4073,
      "izing": 4074,
      "spent": 4075,
      "finals": 4076,
      "effic": 4077,
      "weap": 4078,
      "poly": 4079,
      "serving": 4080,
      "serves": 4081,
      "charity": 4082,
      "fled": 4083,
      "normally": 4084,
      "afterwards": 4085,
      "obtain": 4086,
      "victim": 4087,
      "caused": 4088,
      "cession": 4089,
      "transfer": 4090,
      "survi": 4091,
      "comparis": 4092,
      "compared": 4093,
      "dedicated": 4094,
      "curity": 4095,
      "roughly": 4096,
      "oldest": 4097,
      "vised": 4098,
      "cerem": 4099,
      "plays": 4100,
      "communist": 4101,
      "farmer": 4102,
      "folk": 4103,
      "hypo": 4104,
      "regional": 4105,
      "memorial": 4106,
      "follows": 4107,
      "frank": 4108,
      "faction": 4109,
      "factors": 4110,
      "extent": 4111,
      "longest": 4112,
      "persons": 4113,
      "student": 4114,
      "matters": 4115,
      "matches": 4116,
      "coverage": 4117,
      "collected": 4118,
      "refused": 4119,
      "severe": 4120,
      "effectively": 4121,
      "postal": 4122,
      "everyone": 4123,
      "broke": 4124,
      "trees": 4125,
      "davis": 4126,
      "troops": 4127,
      "skills": 4128,
      "increases": 4129,
      "stein": 4130,
      "romantic": 4131,
      "breaking": 4132,
      "chris": 4133,
      "hydrocarbon": 4134,
      "properties": 4135,
      "sanction": 4136,
      "materials": 4137,
      "holds": 4138,
      "booth": 4139,
      "receiving": 4140,
      "drawing": 4141,
      "concern": 4142,
      "frag": 4143,
      "hundred": 4144,
      "explan": 4145,
      "thinking": 4146,
      "directory": 4147,
      "identical": 4148,
      "appearance": 4149,
      "master": 4150,
      "introduction": 4151,
      "controversy": 4152,
      "industries": 4153,
      "jection": 4154,
      "liberty": 4155,
      "danger": 4156,
      "ikh": 4157,
      "satis": 4158,
      "magic": 4159,
      "propag": 4160,
      "destroyed": 4161,
      "occupation": 4162,
      "towns": 4163,
      "sibility": 4164,
      "medium": 4165,
      "aldous": 4166,
      "respect": 4167,
      "temple": 4168,
      "combination": 4169,
      "bourne": 4170,
      "porters": 4171,
      "figure": 4172,
      "layer": 4173,
      "recognize": 4174,
      "leave": 4175,
      "suggested": 4176,
      "gulf": 4177,
      "teams": 4178,
      "experimental": 4179,
      "eye": 4180,
      "fountain": 4181,
      "hotel": 4182,
      "sacrific": 4183,
      "tunis": 4184,
      "villages": 4185,
      "agreement": 4186,
      "mixed": 4187,
      "challeng": 4188,
      "meeting": 4189,
      "grief": 4190,
      "phenomena": 4191,
      "thousands": 4192,
      "demand": 4193,
      "poetry": 4194,
      "manifest": 4195,
      "multiple": 4196,
      "ucky": 4197,
      "detailed": 4198,
      "determined": 4199,
      "adults": 4200,
      "weeks": 4201,
      "surrounding": 4202,
      "districts": 4203,
      "encoding": 4204,
      "opponent": 4205,
      "intelligence": 4206,
      "stadler": 4207,
      "exactly": 4208,
      "purchase": 4209,
      "phoenix": 4210,
      "immigration": 4211,
      "rapid": 4212,
      "appropriate": 4213,
      "interpretations": 4214,
      "daughter": 4215,
      "recipro": 4216,
      "abandoned": 4217,
      "artefacts": 4218,
      "opinion": 4219,
      "petroleum": 4220,
      "appreci": 4221,
      "fertiliz": 4222,
      "smith": 4223,
      "tetra": 4224,
      "alliance": 4225,
      "chapter": 4226,
      "mississippi": 4227,
      "magazine": 4228,
      "kentucky": 4229,
      "torsion": 4230,
      "unicode": 4231,
      "bad": 4232,
      "bay": 4233,
      "backs": 4234,
      "cree": 4235,
      "cks": 4236,
      "dp": 4237,
      "das": 4238,
      "dism": 4239,
      "dance": 4240,
      "dark": 4241,
      "fan": 4242,
      "gression": 4243,
      "gdp": 4244,
      "hans": 4245,
      "ieth": 4246,
      "ky": 4247,
      "kil": 4248,
      "mad": 4249,
      "mate": 4250,
      "och": 4251,
      "rd": 4252,
      "sort": 4253,
      "scri": 4254,
      "sought": 4255,
      "saint": 4256,
      "tical": 4257,
      "uro": 4258,
      "utop": 4259,
      "wine": 4260,
      "wart": 4261,
      "wound": 4262,
      "xen": 4263,
      "zes": 4264,
      "thor": 4265,
      "thod": 4266,
      "income": 4267,
      "thetis": 4268,
      "reich": 4269,
      "alle": 4270,
      "alog": 4271,
      "alps": 4272,
      "enna": 4273,
      "iss": 4274,
      "ises": 4275,
      "isations": 4276,
      "orb": 4277,
      "ordin": 4278,
      "eddie": 4279,
      "ese": 4280,
      "arth": 4281,
      "arri": 4282,
      "icts": 4283,
      "icago": 4284,
      "tox": 4285,
      "toward": 4286,
      "chicago": 4287,
      "leads": 4288,
      "seat": 4289,
      "sely": 4290,
      "seced": 4291,
      "lyre": 4292,
      "deed": 4293,
      "devices": 4294,
      "sian": 4295,
      "contrad": 4296,
      "agon": 4297,
      "supre": 4298,
      "sumer": 4299,
      "lose": 4300,
      "heal": 4301,
      "heli": 4302,
      "heads": 4303,
      "moon": 4304,
      "peik": 4305,
      "urg": 4306,
      "uration": 4307,
      "ulation": 4308,
      "iring": 4309,
      "phase": 4310,
      "compos": 4311,
      "prove": 4312,
      "expressed": 4313,
      "manu": 4314,
      "erson": 4315,
      "eles": 4316,
      "got": 4317,
      "opport": 4318,
      "affin": 4319,
      "trou": 4320,
      "core": 4321,
      "coal": 4322,
      "cooper": 4323,
      "dsm": 4324,
      "berman": 4325,
      "geograph": 4326,
      "performan": 4327,
      "forming": 4328,
      "output": 4329,
      "meant": 4330,
      "clud": 4331,
      "content": 4332,
      "dispe": 4333,
      "gene": 4334,
      "label": 4335,
      "internal": 4336,
      "herbert": 4337,
      "gered": 4338,
      "fao": 4339,
      "versions": 4340,
      "flag": 4341,
      "carth": 4342,
      "carto": 4343,
      "strike": 4344,
      "element": 4345,
      "cultivation": 4346,
      "mainstream": 4347,
      "worker": 4348,
      "owner": 4349,
      "owners": 4350,
      "developments": 4351,
      "visual": 4352,
      "write": 4353,
      "differences": 4354,
      "alaskan": 4355,
      "sched": 4356,
      "unique": 4357,
      "apollon": 4358,
      "continues": 4359,
      "farmers": 4360,
      "hyac": 4361,
      "algal": 4362,
      "representing": 4363,
      "representative": 4364,
      "moderate": 4365,
      "rett": 4366,
      "trying": 4367,
      "democracy": 4368,
      "status": 4369,
      "statement": 4370,
      "graphy": 4371,
      "paid": 4372,
      "refu": 4373,
      "reflect": 4374,
      "musical": 4375,
      "symbi": 4376,
      "currency": 4377,
      "bene": 4378,
      "easier": 4379,
      "succeed": 4380,
      "colonization": 4381,
      "expand": 4382,
      "classes": 4383,
      "titive": 4384,
      "argument": 4385,
      "advent": 4386,
      "amongst": 4387,
      "civilization": 4388,
      "limit": 4389,
      "angles": 4390,
      "studios": 4391,
      "amaz": 4392,
      "breed": 4393,
      "individualist": 4394,
      "certainly": 4395,
      "practices": 4396,
      "reasoning": 4397,
      "institution": 4398,
      "donate": 4399,
      "donald": 4400,
      "responsible": 4401,
      "existing": 4402,
      "historians": 4403,
      "nomination": 4404,
      "location": 4405,
      "membership": 4406,
      "involves": 4407,
      "similarly": 4408,
      "symbolic": 4409,
      "concerns": 4410,
      "mount": 4411,
      "explicit": 4412,
      "eclip": 4413,
      "speeches": 4414,
      "policies": 4415,
      "electric": 4416,
      "occurred": 4417,
      "observations": 4418,
      "situations": 4419,
      "faces": 4420,
      "computers": 4421,
      "improving": 4422,
      "contributions": 4423,
      "technique": 4424,
      "melting": 4425,
      "molecular": 4426,
      "mountains": 4427,
      "mountainous": 4428,
      "difficulties": 4429,
      "medieval": 4430,
      "respectively": 4431,
      "indiana": 4432,
      "interpretation": 4433,
      "successfully": 4434,
      "photograph": 4435,
      "feminism": 4436,
      "iliad": 4437,
      "offered": 4438,
      "score": 4439,
      "relevant": 4440,
      "scholar": 4441,
      "jury": 4442,
      "emerged": 4443,
      "bringing": 4444,
      "felt": 4445,
      "lieberman": 4446,
      "captured": 4447,
      "inhabit": 4448,
      "agreed": 4449,
      "measure": 4450,
      "twentieth": 4451,
      "employment": 4452,
      "requirements": 4453,
      "linguistic": 4454,
      "windmill": 4455,
      "vegetables": 4456,
      "competent": 4457,
      "promote": 4458,
      "applications": 4459,
      "resistance": 4460,
      "prison": 4461,
      "assassin": 4462,
      "assassination": 4463,
      "syndicalism": 4464,
      "affected": 4465,
      "achieve": 4466,
      "fundament": 4467,
      "legislative": 4468,
      "convention": 4469,
      "corresponding": 4470,
      "judicial": 4471,
      "transmutation": 4472,
      "dissociation": 4473,
      "heritage": 4474,
      "destruction": 4475,
      "threat": 4476,
      "etymology": 4477,
      "athens": 4478,
      "durango": 4479,
      "samoan": 4480,
      "conservative": 4481,
      "ehret": 4482,
      "restricted": 4483,
      "sustain": 4484,
      "looting": 4485,
      "abstract": 4486,
      "computing": 4487,
      "bolshevi": 4488,
      "challenge": 4489,
      "arrangement": 4490,
      "louis": 4491,
      "streng": 4492,
      "fountainhead": 4493,
      "contradict": 4494,
      "supreme": 4495,
      "peikoff": 4496,
      "eclipsed": 4497,
      "bly": 4498,
      "cas": 4499,
      "cig": 4500,
      "eat": 4501,
      "eco": 4502,
      "egg": 4503,
      "fine": 4504,
      "fant": 4505,
      "fell": 4506,
      "fresh": 4507,
      "gir": 4508,
      "hi": 4509,
      "ja": 4510,
      "jpg": 4511,
      "kab": 4512,
      "keman": 4513,
      "lis": 4514,
      "lag": 4515,
      "lad": 4516,
      "mom": 4517,
      "nd": 4518,
      "nur": 4519,
      "nings": 4520,
      "pack": 4521,
      "plot": 4522,
      "price": 4523,
      "rill": 4524,
      "route": 4525,
      "sc": 4526,
      "spot": 4527,
      "scen": 4528,
      "tu": 4529,
      "tur": 4530,
      "tics": 4531,
      "vd": 4532,
      "von": 4533,
      "vals": 4534,
      "varian": 4535,
      "wet": 4536,
      "xi": 4537,
      "yr": 4538,
      "zi": 4539,
      "thb": 4540,
      "info": 4541,
      "insurre": 4542,
      "theat": 4543,
      "react": 4544,
      "really": 4545,
      "restri": 4546,
      "resident": 4547,
      "remed": 4548,
      "reality": 4549,
      "rebel": 4550,
      "alive": 4551,
      "ende": 4552,
      "ensive": 4553,
      "encies": 4554,
      "atures": 4555,
      "attend": 4556,
      "ission": 4557,
      "orm": 4558,
      "oric": 4559,
      "orch": 4560,
      "orthod": 4561,
      "ara": 4562,
      "assem": 4563,
      "ican": 4564,
      "iter": 4565,
      "itude": 4566,
      "items": 4567,
      "stage": 4568,
      "rose": 4569,
      "roles": 4570,
      "sees": 4571,
      "secon": 4572,
      "seus": 4573,
      "security": 4574,
      "beat": 4575,
      "bead": 4576,
      "betra": 4577,
      "deo": 4578,
      "decre": 4579,
      "deep": 4580,
      "devoted": 4581,
      "ami": 4582,
      "amend": 4583,
      "sidency": 4584,
      "inet": 4585,
      "forcing": 4586,
      "images": 4587,
      "impossible": 4588,
      "imony": 4589,
      "conqu": 4590,
      "congression": 4591,
      "adian": 4592,
      "added": 4593,
      "cel": 4594,
      "unable": 4595,
      "tery": 4596,
      "terror": 4597,
      "lovers": 4598,
      "cident": 4599,
      "ura": 4600,
      "ula": 4601,
      "wik": 4602,
      "ares": 4603,
      "embra": 4604,
      "pope": 4605,
      "comet": 4606,
      "prot": 4607,
      "proven": 4608,
      "proces": 4609,
      "proced": 4610,
      "exh": 4611,
      "exceed": 4612,
      "resol": 4613,
      "ressive": 4614,
      "managed": 4615,
      "accident": 4616,
      "mented": 4617,
      "ogens": 4618,
      "actors": 4619,
      "video": 4620,
      "neo": 4621,
      "neither": 4622,
      "worth": 4623,
      "anton": 4624,
      "notion": 4625,
      "bodies": 4626,
      "boiling": 4627,
      "shared": 4628,
      "perfect": 4629,
      "prefix": 4630,
      "presidency": 4631,
      "grass": 4632,
      "blind": 4633,
      "prising": 4634,
      "commission": 4635,
      "pressing": 4636,
      "izon": 4637,
      "ficial": 4638,
      "pleas": 4639,
      "autonom": 4640,
      "maxim": 4641,
      "anarcha": 4642,
      "herself": 4643,
      "spap": 4644,
      "faith": 4645,
      "newspap": 4646,
      "minim": 4647,
      "polar": 4648,
      "worldwide": 4649,
      "counting": 4650,
      "howard": 4651,
      "flam": 4652,
      "ellis": 4653,
      "joe": 4654,
      "random": 4655,
      "greg": 4656,
      "training": 4657,
      "overview": 4658,
      "useful": 4659,
      "appeals": 4660,
      "cade": 4661,
      "humanity": 4662,
      "humanities": 4663,
      "compar": 4664,
      "publicly": 4665,
      "publications": 4666,
      "attacks": 4667,
      "trust": 4668,
      "politicians": 4669,
      "capit": 4670,
      "valu": 4671,
      "governments": 4672,
      "calls": 4673,
      "calling": 4674,
      "assive": 4675,
      "presidents": 4676,
      "communists": 4677,
      "sensory": 4678,
      "paralle": 4679,
      "bibli": 4680,
      "jug": 4681,
      "opened": 4682,
      "lesser": 4683,
      "priest": 4684,
      "factbook": 4685,
      "borne": 4686,
      "borough": 4687,
      "borders": 4688,
      "morality": 4689,
      "signs": 4690,
      "lawy": 4691,
      "originated": 4692,
      "variable": 4693,
      "linear": 4694,
      "anning": 4695,
      "homer": 4696,
      "cracking": 4697,
      "path": 4698,
      "invasion": 4699,
      "ville": 4700,
      "mises": 4701,
      "soldi": 4702,
      "sympto": 4703,
      "winner": 4704,
      "broo": 4705,
      "colony": 4706,
      "buried": 4707,
      "argues": 4708,
      "arguments": 4709,
      "lature": 4710,
      "ibility": 4711,
      "antiqu": 4712,
      "capitalist": 4713,
      "results": 4714,
      "resulted": 4715,
      "issued": 4716,
      "midas": 4717,
      "studying": 4718,
      "drive": 4719,
      "feature": 4720,
      "processing": 4721,
      "datab": 4722,
      "incident": 4723,
      "showed": 4724,
      "showing": 4725,
      "grown": 4726,
      "potkin": 4727,
      "brakeman": 4728,
      "simple": 4729,
      "evolved": 4730,
      "behaviour": 4731,
      "behaviors": 4732,
      "draw": 4733,
      "significance": 4734,
      "frames": 4735,
      "chloric": 4736,
      "explain": 4737,
      "communicate": 4738,
      "communications": 4739,
      "ecology": 4740,
      "globe": 4741,
      "deaths": 4742,
      "female": 4743,
      "professor": 4744,
      "births": 4745,
      "hardcover": 4746,
      "separated": 4747,
      "begins": 4748,
      "administr": 4749,
      "liberal": 4750,
      "initial": 4751,
      "discussed": 4752,
      "observation": 4753,
      "satur": 4754,
      "debt": 4755,
      "loyal": 4756,
      "investig": 4757,
      "teacher": 4758,
      "teaching": 4759,
      "dictator": 4760,
      "declared": 4761,
      "resource": 4762,
      "contributed": 4763,
      "destroying": 4764,
      "melbourne": 4765,
      "impact": 4766,
      "reducing": 4767,
      "questions": 4768,
      "programs": 4769,
      "respected": 4770,
      "landscape": 4771,
      "intensive": 4772,
      "consistent": 4773,
      "granted": 4774,
      "counties": 4775,
      "leaving": 4776,
      "category": 4777,
      "printed": 4778,
      "advocate": 4779,
      "advocates": 4780,
      "legislature": 4781,
      "looking": 4782,
      "qualities": 4783,
      "fellow": 4784,
      "adapted": 4785,
      "capture": 4786,
      "amphibian": 4787,
      "conducted": 4788,
      "preferred": 4789,
      "mixture": 4790,
      "conservation": 4791,
      "fascism": 4792,
      "martin": 4793,
      "implementation": 4794,
      "crude": 4795,
      "fighting": 4796,
      "corruption": 4797,
      "temperature": 4798,
      "citizens": 4799,
      "competition": 4800,
      "reserves": 4801,
      "remote": 4802,
      "achievement": 4803,
      "struggle": 4804,
      "assigned": 4805,
      "budget": 4806,
      "fuels": 4807,
      "components": 4808,
      "astronomy": 4809,
      "ontario": 4810,
      "nominees": 4811,
      "amoeboids": 4812,
      "piece": 4813,
      "slightly": 4814,
      "heavily": 4815,
      "discoveries": 4816,
      "portrayed": 4817,
      "delphi": 4818,
      "austroasiatic": 4819,
      "mathematics": 4820,
      "cabinet": 4821,
      "houses": 4822,
      "rhetoric": 4823,
      "network": 4824,
      "odysseus": 4825,
      "bustion": 4826,
      "suffered": 4827,
      "cyanobacteria": 4828,
      "kropotkin": 4829,
      "enemies": 4830,
      "beyond": 4831,
      "negative": 4832,
      "dramatic": 4833,
      "neighbouring": 4834,
      "jurisdictions": 4835,
      "atmosphere": 4836,
      "stamps": 4837,
      "fertile": 4838,
      "judgment": 4839,
      "encyclopedia": 4840,
      "descendants": 4841,
      "hidden": 4842,
      "isomers": 4843,
      "accomplish": 4844,
      "hydrocarbons": 4845,
      "explanation": 4846,
      "rapidly": 4847,
      "orbital": 4848,
      "arthur": 4849,
      "opportunity": 4850,
      "carthage": 4851,
      "refuge": 4852,
      "inhabitants": 4853,
      "strength": 4854,
      "eggs": 4855,
      "variance": 4856,
      "restrial": 4857,
      "residents": 4858,
      "congressional": 4859,
      "processu": 4860,
      "symptoms": 4861,
      "aun": 4862,
      "awarded": 4863,
      "bart": 4864,
      "bant": 4865,
      "bish": 4866,
      "batt": 4867,
      "blog": 4868,
      "cd": 4869,
      "cers": 4870,
      "cred": 4871,
      "dal": 4872,
      "dates": 4873,
      "dru": 4874,
      "drop": 4875,
      "ek": 4876,
      "fy": 4877,
      "fter": 4878,
      "fab": 4879,
      "fest": 4880,
      "file": 4881,
      "fishing": 4882,
      "gab": 4883,
      "gia": 4884,
      "garden": 4885,
      "gained": 4886,
      "hut": 4887,
      "hier": 4888,
      "idi": 4889,
      "jul": 4890,
      "kansas": 4891,
      "lers": 4892,
      "lum": 4893,
      "lists": 4894,
      "mt": 4895,
      "mand": 4896,
      "mich": 4897,
      "niger": 4898,
      "narrow": 4899,
      "ote": 4900,
      "pin": 4901,
      "pes": 4902,
      "pace": 4903,
      "pared": 4904,
      "rated": 4905,
      "rating": 4906,
      "sland": 4907,
      "tion": 4908,
      "tary": 4909,
      "treas": 4910,
      "tton": 4911,
      "tuck": 4912,
      "tiger": 4913,
      "ua": 4914,
      "vary": 4915,
      "ware": 4916,
      "women": 4917,
      "inse": 4918,
      "inian": 4919,
      "incompetent": 4920,
      "erals": 4921,
      "theater": 4922,
      "resi": 4923,
      "replace": 4924,
      "retained": 4925,
      "encounter": 4926,
      "atc": 4927,
      "atically": 4928,
      "isol": 4929,
      "ord": 4930,
      "oring": 4931,
      "orren": 4932,
      "orient": 4933,
      "edit": 4934,
      "arn": 4935,
      "arctic": 4936,
      "asks": 4937,
      "assum": 4938,
      "iced": 4939,
      "ician": 4940,
      "itt": 4941,
      "itation": 4942,
      "itzer": 4943,
      "toler": 4944,
      "stan": 4945,
      "rod": 4946,
      "rotation": 4947,
      "roots": 4948,
      "veter": 4949,
      "ola": 4950,
      "cture": 4951,
      "igno": 4952,
      "deals": 4953,
      "decade": 4954,
      "inea": 4955,
      "confer": 4956,
      "consci": 4957,
      "consul": 4958,
      "consum": 4959,
      "conformations": 4960,
      "agents": 4961,
      "admitted": 4962,
      "admir": 4963,
      "cele": 4964,
      "celet": 4965,
      "sudan": 4966,
      "height": 4967,
      "hept": 4968,
      "abaci": 4969,
      "absor": 4970,
      "peleus": 4971,
      "utes": 4972,
      "utral": 4973,
      "rafter": 4974,
      "ulated": 4975,
      "wire": 4976,
      "iran": 4977,
      "phry": 4978,
      "rio": 4979,
      "waste": 4980,
      "mania": 4981,
      "manual": 4982,
      "accum": 4983,
      "artists": 4984,
      "artemis": 4985,
      "els": 4986,
      "pling": 4987,
      "nego": 4988,
      "neutral": 4989,
      "oppos": 4990,
      "tears": 4991,
      "trig": 4992,
      "ologically": 4993,
      "string": 4994,
      "cow": 4995,
      "cock": 4996,
      "shop": 4997,
      "owski": 4998,
      "rics": 4999,
      "preced": 5000,
      "prepared": 5001,
      "akston": 5002,
      "ifies": 5003,
      "answers": 5004,
      "clim": 5005,
      "clay": 5006,
      "warren": 5007,
      "contains": 5008,
      "bles": 5009,
      "guese": 5010,
      "guinea": 5011,
      "pron": 5012,
      "centre": 5013,
      "pressure": 5014,
      "canadian": 5015,
      "sociology": 5016,
      "laun": 5017,
      "ranging": 5018,
      "mail": 5019,
      "newman": 5020,
      "hugh": 5021,
      "minerals": 5022,
      "relat": 5023,
      "charles": 5024,
      "charges": 5025,
      "carri": 5026,
      "knows": 5027,
      "norte": 5028,
      "northeast": 5029,
      "seeing": 5030,
      "marks": 5031,
      "producing": 5032,
      "producers": 5033,
      "maintain": 5034,
      "sheikh": 5035,
      "generated": 5036,
      "generations": 5037,
      "highway": 5038,
      "airborne": 5039,
      "compass": 5040,
      "cycl": 5041,
      "visit": 5042,
      "visible": 5043,
      "volun": 5044,
      "crm": 5045,
      "playing": 5046,
      "whereas": 5047,
      "senior": 5048,
      "channel": 5049,
      "supposed": 5050,
      "technical": 5051,
      "technological": 5052,
      "economies": 5053,
      "economics": 5054,
      "ception": 5055,
      "socialism": 5056,
      "depends": 5057,
      "bron": 5058,
      "italy": 5059,
      "italian": 5060,
      "harder": 5061,
      "harry": 5062,
      "retire": 5063,
      "adel": 5064,
      "variant": 5065,
      "motivated": 5066,
      "apped": 5067,
      "demograph": 5068,
      "statues": 5069,
      "novelists": 5070,
      "listed": 5071,
      "dynam": 5072,
      "depending": 5073,
      "tao": 5074,
      "operating": 5075,
      "habsburg": 5076,
      "lowercase": 5077,
      "justice": 5078,
      "benj": 5079,
      "millen": 5080,
      "completed": 5081,
      "burial": 5082,
      "burden": 5083,
      "usual": 5084,
      "classic": 5085,
      "legs": 5086,
      "angeles": 5087,
      "authorities": 5088,
      "camp": 5089,
      "popularity": 5090,
      "atomic": 5091,
      "defence": 5092,
      "zeal": 5093,
      "describing": 5094,
      "establishment": 5095,
      "oxford": 5096,
      "shows": 5097,
      "turns": 5098,
      "brave": 5099,
      "bracelet": 5100,
      "simpl": 5101,
      "locations": 5102,
      "provides": 5103,
      "holy": 5104,
      "passion": 5105,
      "passing": 5106,
      "passage": 5107,
      "involvement": 5108,
      "rounded": 5109,
      "chains": 5110,
      "chlorine": 5111,
      "directors": 5112,
      "profession": 5113,
      "chosen": 5114,
      "chamber": 5115,
      "appearing": 5116,
      "freder": 5117,
      "ruler": 5118,
      "ruled": 5119,
      "educational": 5120,
      "stock": 5121,
      "jean": 5122,
      "alexand": 5123,
      "occurs": 5124,
      "criticism": 5125,
      "situational": 5126,
      "faced": 5127,
      "expect": 5128,
      "wealthy": 5129,
      "appellant": 5130,
      "prophe": 5131,
      "speaks": 5132,
      "diagnostic": 5133,
      "virtuous": 5134,
      "multic": 5135,
      "difficulty": 5136,
      "businessman": 5137,
      "combined": 5138,
      "happiness": 5139,
      "intended": 5140,
      "laboratory": 5141,
      "bacon": 5142,
      "billion": 5143,
      "macedon": 5144,
      "conflicts": 5145,
      "experiences": 5146,
      "entertain": 5147,
      "punish": 5148,
      "index": 5149,
      "printable": 5150,
      "dogs": 5151,
      "exception": 5152,
      "qualified": 5153,
      "preservation": 5154,
      "adaptation": 5155,
      "paperback": 5156,
      "tunnel": 5157,
      "village": 5158,
      "protocol": 5159,
      "mechanical": 5160,
      "genetics": 5161,
      "radicals": 5162,
      "baker": 5163,
      "possibility": 5164,
      "linguistics": 5165,
      "safety": 5166,
      "phenomenon": 5167,
      "legends": 5168,
      "commandments": 5169,
      "catholicism": 5170,
      "instrument": 5171,
      "exports": 5172,
      "gradu": 5173,
      "week": 5174,
      "surrounded": 5175,
      "district": 5176,
      "harvard": 5177,
      "buildings": 5178,
      "yields": 5179,
      "assume": 5180,
      "botany": 5181,
      "legislation": 5182,
      "attracted": 5183,
      "fisher": 5184,
      "pentane": 5185,
      "welfare": 5186,
      "audience": 5187,
      "navy": 5188,
      "walls": 5189,
      "attributed": 5190,
      "reflected": 5191,
      "silver": 5192,
      "sovereignty": 5193,
      "appointed": 5194,
      "distinguished": 5195,
      "density": 5196,
      "delivered": 5197,
      "ethiopia": 5198,
      "extremely": 5199,
      "aeronaut": 5200,
      "failure": 5201,
      "photosynthesis": 5202,
      "convinced": 5203,
      "exclusively": 5204,
      "predominantly": 5205,
      "portuguese": 5206,
      "collapse": 5207,
      "nicomachean": 5208,
      "brown": 5209,
      "theorists": 5210,
      "ceremony": 5211,
      "dangerous": 5212,
      "satisfaction": 5213,
      "tunisia": 5214,
      "creek": 5215,
      "utopian": 5216,
      "trouble": 5217,
      "performance": 5218,
      "schedul": 5219,
      "beneficial": 5220,
      "breeding": 5221,
      "fundamental": 5222,
      "girl": 5223,
      "insurrection": 5224,
      "orthodox": 5225,
      "seconds": 5226,
      "amendment": 5227,
      "flamel": 5228,
      "valuable": 5229,
      "parallel": 5230,
      "soldiers": 5231,
      "bantu": 5232,
      "tucker": 5233,
      "conscious": 5234,
      "bou": 5235,
      "bae": 5236,
      "banner": 5237,
      "cf": 5238,
      "cn": 5239,
      "caut": 5240,
      "clif": 5241,
      "dun": 5242,
      "dak": 5243,
      "dating": 5244,
      "dwan": 5245,
      "ee": 5246,
      "eg": 5247,
      "ez": 5248,
      "emot": 5249,
      "fc": 5250,
      "fon": 5251,
      "filled": 5252,
      "htt": 5253,
      "lion": 5254,
      "ligh": 5255,
      "mist": 5256,
      "mak": 5257,
      "mend": 5258,
      "mull": 5259,
      "mouch": 5260,
      "nag": 5261,
      "nest": 5262,
      "ners": 5263,
      "ndon": 5264,
      "oct": 5265,
      "pi": 5266,
      "pest": 5267,
      "pions": 5268,
      "pped": 5269,
      "ram": 5270,
      "rant": 5271,
      "rural": 5272,
      "rants": 5273,
      "sar": 5274,
      "sap": 5275,
      "sence": 5276,
      "scand": 5277,
      "tag": 5278,
      "tia": 5279,
      "ule": 5280,
      "uae": 5281,
      "vin": 5282,
      "vac": 5283,
      "wed": 5284,
      "weight": 5285,
      "watch": 5286,
      "zy": 5287,
      "zay": 5288,
      "inas": 5289,
      "inct": 5290,
      "inno": 5291,
      "inside": 5292,
      "inability": 5293,
      "inthus": 5294,
      "inches": 5295,
      "insist": 5296,
      "injury": 5297,
      "infant": 5298,
      "anion": 5299,
      "ania": 5300,
      "onto": 5301,
      "recomm": 5302,
      "repu": 5303,
      "retain": 5304,
      "remark": 5305,
      "recovery": 5306,
      "alco": 5307,
      "alfred": 5308,
      "enic": 5309,
      "enlight": 5310,
      "ata": 5311,
      "atog": 5312,
      "oral": 5313,
      "orter": 5314,
      "orph": 5315,
      "orac": 5316,
      "edict": 5317,
      "edward": 5318,
      "arr": 5319,
      "aric": 5320,
      "ardi": 5321,
      "asm": 5322,
      "aster": 5323,
      "itable": 5324,
      "itled": 5325,
      "topher": 5326,
      "sty": 5327,
      "stro": 5328,
      "stress": 5329,
      "rob": 5330,
      "seats": 5331,
      "entry": 5332,
      "entitled": 5333,
      "velo": 5334,
      "lyce": 5335,
      "igor": 5336,
      "bee": 5337,
      "beating": 5338,
      "dele": 5339,
      "deaf": 5340,
      "depos": 5341,
      "demon": 5342,
      "deliber": 5343,
      "ambig": 5344,
      "sia": 5345,
      "sir": 5346,
      "iments": 5347,
      "imposed": 5348,
      "whig": 5349,
      "convers": 5350,
      "conscience": 5351,
      "conjug": 5352,
      "agan": 5353,
      "agron": 5354,
      "adher": 5355,
      "admet": 5356,
      "advice": 5357,
      "und": 5358,
      "vertical": 5359,
      "susp": 5360,
      "superi": 5361,
      "terly": 5362,
      "terra": 5363,
      "heat": 5364,
      "hell": 5365,
      "abbre": 5366,
      "aboriginal": 5367,
      "absence": 5368,
      "modes": 5369,
      "mooch": 5370,
      "usage": 5371,
      "peters": 5372,
      "raised": 5373,
      "raising": 5374,
      "irs": 5375,
      "iry": 5376,
      "phone": 5377,
      "ements": 5378,
      "poem": 5379,
      "composition": 5380,
      "comfort": 5381,
      "combustion": 5382,
      "pros": 5383,
      "prov": 5384,
      "promis": 5385,
      "prosec": 5386,
      "rivers": 5387,
      "rivals": 5388,
      "exer": 5389,
      "exts": 5390,
      "express": 5391,
      "lia": 5392,
      "resign": 5393,
      "manip": 5394,
      "acles": 5395,
      "este": 5396,
      "estimate": 5397,
      "etic": 5398,
      "artific": 5399,
      "elic": 5400,
      "eline": 5401,
      "goes": 5402,
      "pled": 5403,
      "plans": 5404,
      "planned": 5405,
      "inces": 5406,
      "vienna": 5407,
      "neuro": 5408,
      "illa": 5409,
      "hair": 5410,
      "quot": 5411,
      "antly": 5412,
      "cos": 5413,
      "cotton": 5414,
      "dum": 5415,
      "sho": 5416,
      "shed": 5417,
      "shif": 5418,
      "bering": 5419,
      "bertr": 5420,
      "ows": 5421,
      "perce": 5422,
      "perman": 5423,
      "performed": 5424,
      "prejud": 5425,
      "aked": 5426,
      "formally": 5427,
      "methan": 5428,
      "astic": 5429,
      "clin": 5430,
      "disgu": 5431,
      "dissol": 5432,
      "printer": 5433,
      "foss": 5434,
      "cane": 5435,
      "rance": 5436,
      "plea": 5437,
      "asser": 5438,
      "assert": 5439,
      "interact": 5440,
      "positive": 5441,
      "hermet": 5442,
      "spur": 5443,
      "spend": 5444,
      "rendered": 5445,
      "ignor": 5446,
      "eving": 5447,
      "oty": 5448,
      "minnes": 5449,
      "weed": 5450,
      "weaken": 5451,
      "flat": 5452,
      "updated": 5453,
      "corpor": 5454,
      "correct": 5455,
      "seeks": 5456,
      "elementary": 5457,
      "tysburg": 5458,
      "track": 5459,
      "causing": 5460,
      "willers": 5461,
      "sah": 5462,
      "translat": 5463,
      "publication": 5464,
      "cury": 5465,
      "systematic": 5466,
      "cycle": 5467,
      "politically": 5468,
      "crim": 5469,
      "metals": 5470,
      "ideology": 5471,
      "cked": 5472,
      "valid": 5473,
      "sche": 5474,
      "struck": 5475,
      "wells": 5476,
      "milk": 5477,
      "continents": 5478,
      "natives": 5479,
      "supporters": 5480,
      "organisations": 5481,
      "austrians": 5482,
      "hymn": 5483,
      "technologies": 5484,
      "ethn": 5485,
      "ethyl": 5486,
      "alga": 5487,
      "priam": 5488,
      "sample": 5489,
      "membran": 5490,
      "factory": 5491,
      "greece": 5492,
      "funded": 5493,
      "funeral": 5494,
      "considerable": 5495,
      "distance": 5496,
      "differenti": 5497,
      "harris": 5498,
      "characterized": 5499,
      "letic": 5500,
      "aimed": 5501,
      "announ": 5502,
      "empirical": 5503,
      "motile": 5504,
      "apping": 5505,
      "southwest": 5506,
      "mercury": 5507,
      "criteria": 5508,
      "refuse": 5509,
      "invited": 5510,
      "closed": 5511,
      "opera": 5512,
      "operations": 5513,
      "wesley": 5514,
      "gets": 5515,
      "getting": 5516,
      "gettysburg": 5517,
      "mitting": 5518,
      "freeing": 5519,
      "purposes": 5520,
      "reader": 5521,
      "arguably": 5522,
      "advant": 5523,
      "controls": 5524,
      "romans": 5525,
      "interested": 5526,
      "definite": 5527,
      "definitions": 5528,
      "territorial": 5529,
      "arabia": 5530,
      "dragon": 5531,
      "practically": 5532,
      "describes": 5533,
      "goldman": 5534,
      "fairly": 5535,
      "runs": 5536,
      "needed": 5537,
      "handle": 5538,
      "environments": 5539,
      "egyptians": 5540,
      "providing": 5541,
      "lasting": 5542,
      "recorded": 5543,
      "fortun": 5544,
      "helping": 5545,
      "ylon": 5546,
      "platonic": 5547,
      "concerned": 5548,
      "fras": 5549,
      "testimony": 5550,
      "alongside": 5551,
      "officials": 5552,
      "hung": 5553,
      "hundre": 5554,
      "psychiat": 5555,
      "railroads": 5556,
      "formerly": 5557,
      "champions": 5558,
      "princip": 5559,
      "attempts": 5560,
      "ruling": 5561,
      "educated": 5562,
      "substance": 5563,
      "pale": 5564,
      "salt": 5565,
      "salem": 5566,
      "stoy": 5567,
      "jewish": 5568,
      "discuss": 5569,
      "observed": 5570,
      "returned": 5571,
      "daniel": 5572,
      "teachings": 5573,
      "township": 5574,
      "secure": 5575,
      "diagnosed": 5576,
      "favour": 5577,
      "younger": 5578,
      "reduction": 5579,
      "horizon": 5580,
      "seemed": 5581,
      "augustus": 5582,
      "columbus": 5583,
      "distinction": 5584,
      "happens": 5585,
      "consisting": 5586,
      "colonialism": 5587,
      "bah": 5588,
      "controversies": 5589,
      "recognized": 5590,
      "leaves": 5591,
      "actively": 5592,
      "invention": 5593,
      "pacif": 5594,
      "earliest": 5595,
      "focuses": 5596,
      "scott": 5597,
      "repetitive": 5598,
      "amoebae": 5599,
      "dutch": 5600,
      "mexican": 5601,
      "decimal": 5602,
      "classified": 5603,
      "broader": 5604,
      "advocated": 5605,
      "candidates": 5606,
      "arkansas": 5607,
      "roscop": 5608,
      "preserve": 5609,
      "preserved": 5610,
      "sexuality": 5611,
      "experimentation": 5612,
      "eyes": 5613,
      "tomb": 5614,
      "adapt": 5615,
      "estimates": 5616,
      "commerce": 5617,
      "fixed": 5618,
      "fruit": 5619,
      "measures": 5620,
      "confused": 5621,
      "feeling": 5622,
      "feelings": 5623,
      "fascist": 5624,
      "parliamentary": 5625,
      "maryland": 5626,
      "binary": 5627,
      "khmer": 5628,
      "queensland": 5629,
      "favorite": 5630,
      "temperatures": 5631,
      "crown": 5632,
      "painting": 5633,
      "tariff": 5634,
      "participated": 5635,
      "nutri": 5636,
      "harvest": 5637,
      "pursuit": 5638,
      "championship": 5639,
      "suggests": 5640,
      "tasmania": 5641,
      "yield": 5642,
      "encouraged": 5643,
      "assumed": 5644,
      "opponents": 5645,
      "intelligent": 5646,
      "babylon": 5647,
      "budd": 5648,
      "harmful": 5649,
      "speculation": 5650,
      "mystery": 5651,
      "slovenian": 5652,
      "slovenians": 5653,
      "sports": 5654,
      "poorly": 5655,
      "acquired": 5656,
      "quantitative": 5657,
      "causation": 5658,
      "causality": 5659,
      "nominee": 5660,
      "telephus": 5661,
      "gift": 5662,
      "witness": 5663,
      "fagatog": 5664,
      "jersey": 5665,
      "vocab": 5666,
      "revenue": 5667,
      "detect": 5668,
      "publishers": 5669,
      "aleutian": 5670,
      "iversary": 5671,
      "inaugural": 5672,
      "concentration": 5673,
      "subsequent": 5674,
      "crisis": 5675,
      "repeatedly": 5676,
      "jesus": 5677,
      "incorpor": 5678,
      "sulfuric": 5679,
      "tournament": 5680,
      "dollars": 5681,
      "tolstoy": 5682,
      "geometric": 5683,
      "disputed": 5684,
      "efficient": 5685,
      "weapons": 5686,
      "christopher": 5687,
      "propaganda": 5688,
      "thorough": 5689,
      "arrived": 5690,
      "manufact": 5691,
      "geographic": 5692,
      "cluded": 5693,
      "dispelling": 5694,
      "cartoon": 5695,
      "ownership": 5696,
      "hyacinthus": 5697,
      "explicitly": 5698,
      "electricity": 5699,
      "moment": 5700,
      "endeav": 5701,
      "conquered": 5702,
      "exhib": 5703,
      "autonomous": 5704,
      "bibliography": 5705,
      "brooke": 5706,
      "administrative": 5707,
      "bishop": 5708,
      "blogs": 5709,
      "michigan": 5710,
      "negoti": 5711,
      "demographics": 5712,
      "benjamin": 5713,
      "zealand": 5714,
      "simplest": 5715,
      "frederick": 5716,
      "aeronautical": 5717,
      "mulligan": 5718,
      "alcohol": 5719,
      "enlighten": 5720,
      "oracle": 5721,
      "deposits": 5722,
      "agronom": 5723,
      "admetus": 5724,
      "abbrevi": 5725,
      "artificial": 5726,
      "hermetical": 5727,
      "minnesota": 5728,
      "hundreds": 5729,
      "horizontal": 5730,
      "fagatogo": 5731,
      "aa": 5732,
      "aero": 5733,
      "ape": 5734,
      "blow": 5735,
      "bacteria": 5736,
      "bapt": 5737,
      "cg": 5738,
      "cine": 5739,
      "cise": 5740,
      "df": 5741,
      "dar": 5742,
      "dess": 5743,
      "dair": 5744,
      "dney": 5745,
      "eor": 5746,
      "eber": 5747,
      "fly": 5748,
      "fate": 5749,
      "flower": 5750,
      "gon": 5751,
      "gone": 5752,
      "gent": 5753,
      "gno": 5754,
      "gian": 5755,
      "glor": 5756,
      "hat": 5757,
      "hes": 5758,
      "hic": 5759,
      "hul": 5760,
      "hence": 5761,
      "hang": 5762,
      "iq": 5763,
      "ias": 5764,
      "iency": 5765,
      "jef": 5766,
      "kat": 5767,
      "kit": 5768,
      "kary": 5769,
      "kho": 5770,
      "kanner": 5771,
      "lic": 5772,
      "lud": 5773,
      "mum": 5774,
      "massive": 5775,
      "nfl": 5776,
      "oter": 5777,
      "pir": 5778,
      "pute": 5779,
      "pull": 5780,
      "rist": 5781,
      "rage": 5782,
      "rations": 5783,
      "rigation": 5784,
      "sq": 5785,
      "sate": 5786,
      "scr": 5787,
      "sick": 5788,
      "sounds": 5789,
      "tight": 5790,
      "tort": 5791,
      "ug": 5792,
      "uine": 5793,
      "vul": 5794,
      "vated": 5795,
      "vail": 5796,
      "wen": 5797,
      "wat": 5798,
      "wig": 5799,
      "wder": 5800,
      "yu": 5801,
      "your": 5802,
      "zen": 5803,
      "zim": 5804,
      "zsche": 5805,
      "throw": 5806,
      "thick": 5807,
      "thail": 5808,
      "inspir": 5809,
      "indefinite": 5810,
      "infras": 5811,
      "anger": 5812,
      "analog": 5813,
      "ongoing": 5814,
      "thes": 5815,
      "recon": 5816,
      "rever": 5817,
      "revi": 5818,
      "refin": 5819,
      "remin": 5820,
      "recounts": 5821,
      "alon": 5822,
      "alia": 5823,
      "enn": 5824,
      "enab": 5825,
      "enian": 5826,
      "enger": 5827,
      "enorm": 5828,
      "encompass": 5829,
      "attended": 5830,
      "isc": 5831,
      "isan": 5832,
      "orbit": 5833,
      "esp": 5834,
      "esoter": 5835,
      "arc": 5836,
      "arra": 5837,
      "aria": 5838,
      "arid": 5839,
      "icat": 5840,
      "icip": 5841,
      "icting": 5842,
      "itic": 5843,
      "itivism": 5844,
      "ouds": 5845,
      "oured": 5846,
      "topl": 5847,
      "tored": 5848,
      "stig": 5849,
      "stag": 5850,
      "stir": 5851,
      "staf": 5852,
      "stere": 5853,
      "static": 5854,
      "stars": 5855,
      "cha": 5856,
      "cher": 5857,
      "chis": 5858,
      "lean": 5859,
      "rothb": 5860,
      "vehic": 5861,
      "olina": 5862,
      "olith": 5863,
      "illegal": 5864,
      "ome": 5865,
      "iguous": 5866,
      "beard": 5867,
      "begun": 5868,
      "dean": 5869,
      "deem": 5870,
      "dement": 5871,
      "defic": 5872,
      "decess": 5873,
      "deck": 5874,
      "amon": 5875,
      "amed": 5876,
      "ambi": 5877,
      "imper": 5878,
      "immedi": 5879,
      "conven": 5880,
      "convic": 5881,
      "converse": 5882,
      "consec": 5883,
      "consumer": 5884,
      "aging": 5885,
      "agent": 5886,
      "aded": 5887,
      "adam": 5888,
      "admi": 5889,
      "una": 5890,
      "unci": 5891,
      "unless": 5892,
      "unorganized": 5893,
      "unemployment": 5894,
      "unusual": 5895,
      "unrounded": 5896,
      "verbal": 5897,
      "sugar": 5898,
      "terior": 5899,
      "terrestrial": 5900,
      "losing": 5901,
      "hem": 5902,
      "hear": 5903,
      "hears": 5904,
      "hemis": 5905,
      "absol": 5906,
      "abroad": 5907,
      "absent": 5908,
      "rac": 5909,
      "rare": 5910,
      "rarely": 5911,
      "soph": 5912,
      "wid": 5913,
      "irish": 5914,
      "irrigation": 5915,
      "phia": 5916,
      "emper": 5917,
      "powder": 5918,
      "comte": 5919,
      "propon": 5920,
      "rium": 5921,
      "rival": 5922,
      "excl": 5923,
      "apple": 5924,
      "diver": 5925,
      "diet": 5926,
      "diverse": 5927,
      "ayers": 5928,
      "reson": 5929,
      "restored": 5930,
      "mann": 5931,
      "acre": 5932,
      "accused": 5933,
      "ett": 5934,
      "etzsche": 5935,
      "mentation": 5936,
      "eless": 5937,
      "actress": 5938,
      "nebr": 5939,
      "illation": 5940,
      "illum": 5941,
      "haw": 5942,
      "hawa": 5943,
      "arche": 5944,
      "afri": 5945,
      "affir": 5946,
      "quent": 5947,
      "quet": 5948,
      "antial": 5949,
      "essen": 5950,
      "essed": 5951,
      "essential": 5952,
      "ologie": 5953,
      "coordin": 5954,
      "dub": 5955,
      "dust": 5956,
      "urely": 5957,
      "shar": 5958,
      "shoc": 5959,
      "shiel": 5960,
      "shining": 5961,
      "bern": 5962,
      "berlin": 5963,
      "berbers": 5964,
      "perpet": 5965,
      "persian": 5966,
      "umen": 5967,
      "umes": 5968,
      "fear": 5969,
      "pred": 5970,
      "predict": 5971,
      "prestig": 5972,
      "predecess": 5973,
      "ultimate": 5974,
      "ided": 5975,
      "clouds": 5976,
      "tends": 5977,
      "tenden": 5978,
      "tendency": 5979,
      "gran": 5980,
      "grants": 5981,
      "contract": 5982,
      "contested": 5983,
      "contained": 5984,
      "contexts": 5985,
      "contiguous": 5986,
      "partner": 5987,
      "partially": 5988,
      "syas": 5989,
      "dispute": 5990,
      "generic": 5991,
      "genuine": 5992,
      "pts": 5993,
      "odd": 5994,
      "odes": 5995,
      "fox": 5996,
      "fores": 5997,
      "endo": 5998,
      "endor": 5999,
      "colspan": 6000,
      "lax": 6001,
      "laos": 6002,
      "plead": 6003,
      "interior": 6004,
      "maur": 6005,
      "hera": 6006,
      "physi": 6007,
      "spra": 6008,
      "spont": 6009,
      "rend": 6010,
      "rendering": 6011,
      "finding": 6012,
      "finished": 6013,
      "faa": 6014,
      "newly": 6015,
      "huge": 6016,
      "otto": 6017,
      "mining": 6018,
      "counted": 6019,
      "doors": 6020,
      "seriously": 6021,
      "philadel": 6022,
      "relating": 6023,
      "relatives": 6024,
      "flour": 6025,
      "carl": 6026,
      "carinth": 6027,
      "carolina": 6028,
      "armenian": 6029,
      "knowing": 6030,
      "ellular": 6031,
      "seeking": 6032,
      "marsyas": 6033,
      "nationalrat": 6034,
      "obtained": 6035,
      "produces": 6036,
      "producer": 6037,
      "overlap": 6038,
      "maintained": 6039,
      "generals": 6040,
      "wayne": 6041,
      "aska": 6042,
      "forest": 6043,
      "transform": 6044,
      "transpon": 6045,
      "transformed": 6046,
      "surplus": 6047,
      "compare": 6048,
      "compounds": 6049,
      "dedu": 6050,
      "attested": 6051,
      "engage": 6052,
      "truly": 6053,
      "trucial": 6054,
      "tructure": 6055,
      "courier": 6056,
      "writes": 6057,
      "stands": 6058,
      "myths": 6059,
      "volcan": 6060,
      "volumes": 6061,
      "cratic": 6062,
      "meteor": 6063,
      "medal": 6064,
      "founding": 6065,
      "link": 6066,
      "lins": 6067,
      "senators": 6068,
      "farms": 6069,
      "calend": 6070,
      "supp": 6071,
      "supply": 6072,
      "bible": 6073,
      "setting": 6074,
      "osane": 6075,
      "regist": 6076,
      "install": 6077,
      "fili": 6078,
      "socialist": 6079,
      "opening": 6080,
      "memory": 6081,
      "followers": 6082,
      "funds": 6083,
      "tons": 6084,
      "borg": 6085,
      "border": 6086,
      "borrow": 6087,
      "federation": 6088,
      "morrow": 6089,
      "morning": 6090,
      "harbor": 6091,
      "custo": 6092,
      "characteristic": 6093,
      "personality": 6094,
      "mike": 6095,
      "miami": 6096,
      "variants": 6097,
      "populated": 6098,
      "populous": 6099,
      "populations": 6100,
      "anniversary": 6101,
      "hamitic": 6102,
      "patron": 6103,
      "johnson": 6104,
      "grain": 6105,
      "collective": 6106,
      "colleges": 6107,
      "request": 6108,
      "ballo": 6109,
      "balance": 6110,
      "critique": 6111,
      "pathetic": 6112,
      "solar": 6113,
      "operative": 6114,
      "background": 6115,
      "succes": 6116,
      "expensive": 6117,
      "legit": 6118,
      "angled": 6119,
      "profile": 6120,
      "ibia": 6121,
      "antially": 6122,
      "cambridge": 6123,
      "defines": 6124,
      "brew": 6125,
      "practiced": 6126,
      "instituted": 6127,
      "andorran": 6128,
      "responsibility": 6129,
      "friday": 6130,
      "voy": 6131,
      "russell": 6132,
      "hydrochloric": 6133,
      "ministers": 6134,
      "oxid": 6135,
      "realm": 6136,
      "nome": 6137,
      "analytics": 6138,
      "brain": 6139,
      "locks": 6140,
      "earthqu": 6141,
      "constitute": 6142,
      "similarities": 6143,
      "nium": 6144,
      "nietzsche": 6145,
      "literacy": 6146,
      "ylus": 6147,
      "platform": 6148,
      "georgia": 6149,
      "richmond": 6150,
      "hunting": 6151,
      "explains": 6152,
      "explained": 6153,
      "extensively": 6154,
      "psyched": 6155,
      "starts": 6156,
      "judge": 6157,
      "strauss": 6158,
      "identification": 6159,
      "penn": 6160,
      "sequence": 6161,
      "sequences": 6162,
      "heroic": 6163,
      "spirits": 6164,
      "substantial": 6165,
      "substantially": 6166,
      "palm": 6167,
      "assistant": 6168,
      "double": 6169,
      "switch": 6170,
      "criticised": 6171,
      "criticisms": 6172,
      "constructed": 6173,
      "discussing": 6174,
      "facilities": 6175,
      "satirical": 6176,
      "investigation": 6177,
      "wax": 6178,
      "connection": 6179,
      "connections": 6180,
      "expelled": 6181,
      "behavioral": 6182,
      "futur": 6183,
      "sterreich": 6184,
      "declines": 6185,
      "contribute": 6186,
      "killing": 6187,
      "papers": 6188,
      "terminal": 6189,
      "regardless": 6190,
      "designed": 6191,
      "metaphysical": 6192,
      "happened": 6193,
      "porter": 6194,
      "confederation": 6195,
      "recognition": 6196,
      "protect": 6197,
      "frequent": 6198,
      "frequency": 6199,
      "journey": 6200,
      "macro": 6201,
      "decide": 6202,
      "indicates": 6203,
      "slams": 6204,
      "released": 6205,
      "amounts": 6206,
      "ancestor": 6207,
      "ancestors": 6208,
      "contrary": 6209,
      "committed": 6210,
      "circle": 6211,
      "fruits": 6212,
      "risk": 6213,
      "measured": 6214,
      "mechanism": 6215,
      "mythology": 6216,
      "integrity": 6217,
      "imagery": 6218,
      "neighbor": 6219,
      "attachment": 6220,
      "implemented": 6221,
      "crucial": 6222,
      "digits": 6223,
      "london": 6224,
      "safe": 6225,
      "windows": 6226,
      "dialog": 6227,
      "biodiesel": 6228,
      "nucle": 6229,
      "nuclear": 6230,
      "application": 6231,
      "prises": 6232,
      "apparently": 6233,
      "aquinas": 6234,
      "municip": 6235,
      "removal": 6236,
      "protons": 6237,
      "gradually": 6238,
      "ratio": 6239,
      "zoology": 6240,
      "errors": 6241,
      "steps": 6242,
      "component": 6243,
      "mysterious": 6244,
      "pseudoarchaeology": 6245,
      "pseudopods": 6246,
      "hopes": 6247,
      "ohio": 6248,
      "wildlife": 6249,
      "solely": 6250,
      "victoria": 6251,
      "oscars": 6252,
      "nominations": 6253,
      "telephone": 6254,
      "enjoyed": 6255,
      "damage": 6256,
      "pulled": 6257,
      "slowly": 6258,
      "alleged": 6259,
      "heavy": 6260,
      "delays": 6261,
      "juneau": 6262,
      "mathematical": 6263,
      "montana": 6264,
      "bundes": 6265,
      "false": 6266,
      "nickname": 6267,
      "olympic": 6268,
      "hexade": 6269,
      "strategic": 6270,
      "strategies": 6271,
      "percentage": 6272,
      "subsequently": 6273,
      "selfishness": 6274,
      "occasionally": 6275,
      "elix": 6276,
      "tools": 6277,
      "conceived": 6278,
      "connors": 6279,
      "conclusion": 6280,
      "conclusions": 6281,
      "heavens": 6282,
      "sherman": 6283,
      "compatibility": 6284,
      "improvements": 6285,
      "pioneered": 6286,
      "nutritional": 6287,
      "evident": 6288,
      "wolf": 6289,
      "revealed": 6290,
      "strictly": 6291,
      "survived": 6292,
      "comparison": 6293,
      "fertilizer": 6294,
      "backspace": 6295,
      "dismis": 6296,
      "toxin": 6297,
      "healing": 6298,
      "symbios": 6299,
      "bolsheviks": 6300,
      "vdl": 6301,
      "assembly": 6302,
      "wiki": 6303,
      "embraced": 6304,
      "procedure": 6305,
      "newspaper": 6306,
      "comparative": 6307,
      "database": 6308,
      "festival": 6309,
      "oriented": 6310,
      "celebr": 6311,
      "launched": 6312,
      "relativism": 6313,
      "bronze": 6314,
      "millennium": 6315,
      "alexandria": 6316,
      "weekly": 6317,
      "dakota": 6318,
      "emotional": 6319,
      "http": 6320,
      "octane": 6321,
      "petersburg": 6322,
      "prosper": 6323,
      "perceived": 6324,
      "otyped": 6325,
      "translator": 6326,
      "paleo": 6327,
      "agronomy": 6328,
      "satell": 6329,
      "thailand": 6330,
      "infrastructure": 6331,
      "esoteric": 6332,
      "staggered": 6333,
      "staff": 6334,
      "stereotyped": 6335,
      "rothbard": 6336,
      "dementia": 6337,
      "consecutive": 6338,
      "admired": 6339,
      "absolute": 6340,
      "nebraska": 6341,
      "hawaii": 6342,
      "predecessors": 6343,
      "spontane": 6344,
      "philadelphia": 6345,
      "ai": 6346,
      "aen": 6347,
      "aic": 6348,
      "ave": 6349,
      "abe": 6350,
      "aph": 6351,
      "bom": 6352,
      "bce": 6353,
      "bach": 6354,
      "bry": 6355,
      "biling": 6356,
      "cou": 6357,
      "cli": 6358,
      "cinc": 6359,
      "cere": 6360,
      "ccer": 6361,
      "caught": 6362,
      "dc": 6363,
      "dor": 6364,
      "dden": 6365,
      "drought": 6366,
      "ea": 6367,
      "eigh": 6368,
      "eous": 6369,
      "egal": 6370,
      "fill": 6371,
      "fusion": 6372,
      "gn": 6373,
      "gle": 6374,
      "gro": 6375,
      "gil": 6376,
      "gly": 6377,
      "gall": 6378,
      "gence": 6379,
      "garet": 6380,
      "hour": 6381,
      "hcl": 6382,
      "hod": 6383,
      "hors": 6384,
      "hwin": 6385,
      "iet": 6386,
      "ider": 6387,
      "ibus": 6388,
      "jane": 6389,
      "jured": 6390,
      "jacks": 6391,
      "jaz": 6392,
      "kes": 6393,
      "kim": 6394,
      "kno": 6395,
      "kwith": 6396,
      "kid": 6397,
      "karl": 6398,
      "lun": 6399,
      "lakes": 6400,
      "md": 6401,
      "ml": 6402,
      "mour": 6403,
      "mul": 6404,
      "nst": 6405,
      "nil": 6406,
      "nig": 6407,
      "nad": 6408,
      "naked": 6409,
      "ois": 6410,
      "oes": 6411,
      "oto": 6412,
      "pm": 6413,
      "pine": 6414,
      "pric": 6415,
      "prit": 6416,
      "pson": 6417,
      "pier": 6418,
      "pdd": 6419,
      "ras": 6420,
      "rates": 6421,
      "rising": 6422,
      "sl": 6423,
      "sr": 6424,
      "send": 6425,
      "sors": 6426,
      "sold": 6427,
      "sang": 6428,
      "skept": 6429,
      "tan": 6430,
      "tone": 6431,
      "tay": 6432,
      "tant": 6433,
      "tip": 6434,
      "tied": 6435,
      "tie": 6436,
      "tempor": 6437,
      "touch": 6438,
      "usi": 6439,
      "upl": 6440,
      "vine": 6441,
      "vity": 6442,
      "vital": 6443,
      "vada": 6444,
      "wra": 6445,
      "wake": 6446,
      "wants": 6447,
      "yuk": 6448,
      "zing": 6449,
      "zinc": 6450,
      "zick": 6451,
      "zales": 6452,
      "thon": 6453,
      "iner": 6454,
      "inity": 6455,
      "inks": 6456,
      "inher": 6457,
      "inland": 6458,
      "innat": 6459,
      "input": 6460,
      "informed": 6461,
      "inery": 6462,
      "inowski": 6463,
      "injured": 6464,
      "ani": 6465,
      "anism": 6466,
      "oning": 6467,
      "thea": 6468,
      "thee": 6469,
      "thel": 6470,
      "remove": 6471,
      "recount": 6472,
      "removed": 6473,
      "reactivity": 6474,
      "alter": 6475,
      "alem": 6476,
      "encing": 6477,
      "ensure": 6478,
      "atus": 6479,
      "orate": 6480,
      "oria": 6481,
      "orks": 6482,
      "esto": 6483,
      "arity": 6484,
      "arrest": 6485,
      "asing": 6486,
      "aste": 6487,
      "icists": 6488,
      "ands": 6489,
      "itches": 6490,
      "tob": 6491,
      "tock": 6492,
      "tomat": 6493,
      "ionary": 6494,
      "stim": 6495,
      "stages": 6496,
      "stret": 6497,
      "chen": 6498,
      "ching": 6499,
      "chant": 6500,
      "chase": 6501,
      "chry": 6502,
      "lem": 6503,
      "leu": 6504,
      "rogen": 6505,
      "semin": 6506,
      "olas": 6507,
      "olay": 6508,
      "iles": 6509,
      "ilus": 6510,
      "ilib": 6511,
      "oms": 6512,
      "omon": 6513,
      "omed": 6514,
      "oming": 6515,
      "igible": 6516,
      "bear": 6517,
      "beast": 6518,
      "beja": 6519,
      "debut": 6520,
      "deple": 6521,
      "amb": 6522,
      "amor": 6523,
      "amate": 6524,
      "ammon": 6525,
      "ameral": 6526,
      "sie": 6527,
      "sides": 6528,
      "inequality": 6529,
      "immort": 6530,
      "istem": 6531,
      "whate": 6532,
      "consp": 6533,
      "consen": 6534,
      "conversion": 6535,
      "agas": 6536,
      "advis": 6537,
      "nineteenth": 6538,
      "cement": 6539,
      "ceme": 6540,
      "ung": 6541,
      "unic": 6542,
      "unite": 6543,
      "uncertain": 6544,
      "verty": 6545,
      "suffic": 6546,
      "sudden": 6547,
      "terri": 6548,
      "lod": 6549,
      "lover": 6550,
      "logg": 6551,
      "het": 6552,
      "heim": 6553,
      "heel": 6554,
      "hebrew": 6555,
      "aba": 6556,
      "abnormal": 6557,
      "moe": 6558,
      "moz": 6559,
      "moses": 6560,
      "modal": 6561,
      "mowen": 6562,
      "peas": 6563,
      "pearl": 6564,
      "noble": 6565,
      "nozick": 6566,
      "urally": 6567,
      "raid": 6568,
      "races": 6569,
      "ulary": 6570,
      "ulations": 6571,
      "sored": 6572,
      "soccer": 6573,
      "wider": 6574,
      "phes": 6575,
      "emin": 6576,
      "emma": 6577,
      "reef": 6578,
      "reele": 6579,
      "withdrew": 6580,
      "pois": 6581,
      "poten": 6582,
      "poverty": 6583,
      "comic": 6584,
      "comment": 6585,
      "comments": 6586,
      "commentary": 6587,
      "comprise": 6588,
      "prospe": 6589,
      "proclaimed": 6590,
      "proportion": 6591,
      "projection": 6592,
      "prophes": 6593,
      "rior": 6594,
      "ride": 6595,
      "rider": 6596,
      "riage": 6597,
      "exposed": 6598,
      "dia": 6599,
      "lius": 6600,
      "ressing": 6601,
      "manor": 6602,
      "mankind": 6603,
      "acity": 6604,
      "acular": 6605,
      "accus": 6606,
      "esty": 6607,
      "etrus": 6608,
      "elite": 6609,
      "plate": 6610,
      "plural": 6611,
      "acter": 6612,
      "acted": 6613,
      "nee": 6614,
      "neck": 6615,
      "nevada": 6616,
      "oppose": 6617,
      "iller": 6618,
      "illness": 6619,
      "hail": 6620,
      "hausa": 6621,
      "strat": 6622,
      "cook": 6623,
      "iana": 6624,
      "boat": 6625,
      "shap": 6626,
      "shops": 6627,
      "shorter": 6628,
      "berra": 6629,
      "owen": 6630,
      "rica": 6631,
      "perception": 6632,
      "umped": 6633,
      "fewer": 6634,
      "prepar": 6635,
      "premat": 6636,
      "presum": 6637,
      "premises": 6638,
      "formula": 6639,
      "ultural": 6640,
      "outline": 6641,
      "meat": 6642,
      "cles": 6643,
      "contra": 6644,
      "partial": 6645,
      "rites": 6646,
      "blake": 6647,
      "blank": 6648,
      "syl": 6649,
      "sydney": 6650,
      "diseas": 6651,
      "disability": 6652,
      "disappears": 6653,
      "disintegr": 6654,
      "disappeared": 6655,
      "portions": 6656,
      "udder": 6657,
      "itioners": 6658,
      "genes": 6659,
      "gender": 6660,
      "centers": 6661,
      "ivo": 6662,
      "pressu": 6663,
      "pressive": 6664,
      "odor": 6665,
      "canberra": 6666,
      "colour": 6667,
      "ranks": 6668,
      "ranking": 6669,
      "intervent": 6670,
      "maia": 6671,
      "spear": 6672,
      "phytes": 6673,
      "timore": 6674,
      "spen": 6675,
      "spar": 6676,
      "spite": 6677,
      "spangled": 6678,
      "tsky": 6679,
      "rence": 6680,
      "ignment": 6681,
      "landing": 6682,
      "desir": 6683,
      "descent": 6684,
      "wegian": 6685,
      "poll": 6686,
      "intention": 6687,
      "thereby": 6688,
      "australis": 6689,
      "counsel": 6690,
      "lane": 6691,
      "cards": 6692,
      "arms": 6693,
      "armor": 6694,
      "armies": 6695,
      "corn": 6696,
      "coral": 6697,
      "corner": 6698,
      "corpus": 6699,
      "norway": 6700,
      "norwegian": 6701,
      "beckwith": 6702,
      "jobs": 6703,
      "whenever": 6704,
      "trace": 6705,
      "trained": 6706,
      "marshall": 6707,
      "margaret": 6708,
      "marriage": 6709,
      "obs": 6710,
      "productive": 6711,
      "lls": 6712,
      "overall": 6713,
      "overseas": 6714,
      "sheep": 6715,
      "occult": 6716,
      "forever": 6717,
      "subfields": 6718,
      "transce": 6719,
      "transformations": 6720,
      "larkin": 6721,
      "surfaces": 6722,
      "airlines": 6723,
      "airspace": 6724,
      "compound": 6725,
      "creative": 6726,
      "indict": 6727,
      "eubank": 6728,
      "visited": 6729,
      "indirect": 6730,
      "basically": 6731,
      "crus": 6732,
      "crouch": 6733,
      "ideals": 6734,
      "archaea": 6735,
      "cker": 6736,
      "linked": 6737,
      "senses": 6738,
      "trip": 6739,
      "tried": 6740,
      "tribut": 6741,
      "trivia": 6742,
      "mild": 6743,
      "paras": 6744,
      "parace": 6745,
      "changing": 6746,
      "cale": 6747,
      "examined": 6748,
      "supplement": 6749,
      "bias": 6750,
      "organism": 6751,
      "organisation": 6752,
      "likewise": 6753,
      "mono": 6754,
      "monu": 6755,
      "monarchy": 6756,
      "files": 6757,
      "famili": 6758,
      "controlled": 6759,
      "franco": 6760,
      "facts": 6761,
      "aneously": 6762,
      "universally": 6763,
      "brun": 6764,
      "fung": 6765,
      "funding": 6766,
      "fungi": 6767,
      "referring": 6768,
      "considerably": 6769,
      "aggressive": 6770,
      "distillation": 6771,
      "harold": 6772,
      "algerians": 6773,
      "numbered": 6774,
      "adequ": 6775,
      "signals": 6776,
      "denotes": 6777,
      "denote": 6778,
      "mira": 6779,
      "variation": 6780,
      "variations": 6781,
      "domain": 6782,
      "epi": 6783,
      "epic": 6784,
      "epistem": 6785,
      "homeric": 6786,
      "empir": 6787,
      "motto": 6788,
      "motivation": 6789,
      "hamper": 6790,
      "helen": 6791,
      "equality": 6792,
      "equilib": 6793,
      "patent": 6794,
      "statue": 6795,
      "grace": 6796,
      "meanings": 6797,
      "baltimore": 6798,
      "refuses": 6799,
      "supporting": 6800,
      "tail": 6801,
      "influences": 6802,
      "missions": 6803,
      "solu": 6804,
      "solomon": 6805,
      "rallied": 6806,
      "sses": 6807,
      "operate": 6808,
      "periods": 6809,
      "periplan": 6810,
      "symph": 6811,
      "habit": 6812,
      "benedict": 6813,
      "malinowski": 6814,
      "easy": 6815,
      "tremend": 6816,
      "primitive": 6817,
      "colonists": 6818,
      "troilus": 6819,
      "trotsky": 6820,
      "delicat": 6821,
      "godwin": 6822,
      "goddess": 6823,
      "skies": 6824,
      "advances": 6825,
      "etime": 6826,
      "democrat": 6827,
      "lime": 6828,
      "profound": 6829,
      "athy": 6830,
      "ibm": 6831,
      "summit": 6832,
      "summary": 6833,
      "banking": 6834,
      "camera": 6835,
      "academ": 6836,
      "interesting": 6837,
      "animalia": 6838,
      "animalium": 6839,
      "bark": 6840,
      "barri": 6841,
      "barley": 6842,
      "individualism": 6843,
      "arabs": 6844,
      "iec": 6845,
      "practitioners": 6846,
      "respond": 6847,
      "responded": 6848,
      "halogens": 6849,
      "rush": 6850,
      "researchers": 6851,
      "timescale": 6852,
      "properly": 6853,
      "successor": 6854,
      "placing": 6855,
      "establishing": 6856,
      "oxide": 6857,
      "analytic": 6858,
      "lasted": 6859,
      "bitumen": 6860,
      "constitu": 6861,
      "passenger": 6862,
      "nearby": 6863,
      "additionally": 6864,
      "involving": 6865,
      "helps": 6866,
      "helpful": 6867,
      "nio": 6868,
      "literate": 6869,
      "draft": 6870,
      "doesn": 6871,
      "symbolism": 6872,
      "kenya": 6873,
      "concerning": 6874,
      "functional": 6875,
      "baseball": 6876,
      "shortly": 6877,
      "objectivists": 6878,
      "hunter": 6879,
      "royal": 6880,
      "acceptance": 6881,
      "ecological": 6882,
      "strait": 6883,
      "bella": 6884,
      "conception": 6885,
      "identity": 6886,
      "identified": 6887,
      "treatises": 6888,
      "coloring": 6889,
      "eventual": 6890,
      "chose": 6891,
      "choose": 6892,
      "chambers": 6893,
      "principal": 6894,
      "hardware": 6895,
      "rulers": 6896,
      "churches": 6897,
      "separation": 6898,
      "substit": 6899,
      "salam": 6900,
      "store": 6901,
      "stood": 6902,
      "assistance": 6903,
      "chemicals": 6904,
      "coptic": 6905,
      "jections": 6906,
      "specialty": 6907,
      "sunny": 6908,
      "returns": 6909,
      "returning": 6910,
      "significantly": 6911,
      "facto": 6912,
      "dominated": 6913,
      "teachers": 6914,
      "decline": 6915,
      "declined": 6916,
      "declaring": 6917,
      "contributing": 6918,
      "speakers": 6919,
      "engineer": 6920,
      "spoke": 6921,
      "secured": 6922,
      "celled": 6923,
      "plication": 6924,
      "virtually": 6925,
      "virtues": 6926,
      "iracy": 6927,
      "nationally": 6928,
      "terminology": 6929,
      "businesses": 6930,
      "secretly": 6931,
      "programming": 6932,
      "regarding": 6933,
      "equipage": 6934,
      "globalization": 6935,
      "combat": 6936,
      "column": 6937,
      "interpreted": 6938,
      "designated": 6939,
      "casting": 6940,
      "happy": 6941,
      "intense": 6942,
      "confederacy": 6943,
      "kins": 6944,
      "exploited": 6945,
      "explored": 6946,
      "rationalism": 6947,
      "defect": 6948,
      "governors": 6949,
      "luther": 6950,
      "offering": 6951,
      "blooms": 6952,
      "migration": 6953,
      "chancell": 6954,
      "probable": 6955,
      "societal": 6956,
      "keeps": 6957,
      "keeping": 6958,
      "punk": 6959,
      "release": 6960,
      "pheres": 6961,
      "exceptions": 6962,
      "qualitative": 6963,
      "andrew": 6964,
      "circum": 6965,
      "circular": 6966,
      "necessarily": 6967,
      "catalan": 6968,
      "catalon": 6969,
      "ffs": 6970,
      "frustr": 6971,
      "emphasize": 6972,
      "mechanization": 6973,
      "approaches": 6974,
      "messages": 6975,
      "oblig": 6976,
      "vitamin": 6977,
      "imagin": 6978,
      "productivity": 6979,
      "fascists": 6980,
      "glass": 6981,
      "martial": 6982,
      "martyr": 6983,
      "oceans": 6984,
      "stopped": 6985,
      "digital": 6986,
      "safin": 6987,
      "tablet": 6988,
      "vegetable": 6989,
      "livestock": 6990,
      "doctrines": 6991,
      "pushed": 6992,
      "inspire": 6993,
      "suffix": 6994,
      "promoted": 6995,
      "reserve": 6996,
      "manifesto": 6997,
      "syndicalist": 6998,
      "screenplay": 6999,
      "screenwriter": 7000,
      "aquatic": 7001,
      "munda": 7002,
      "details": 7003,
      "determining": 7004,
      "forums": 7005,
      "lifetime": 7006,
      "translation": 7007,
      "translated": 7008,
      "translations": 7009,
      "struggles": 7010,
      "leadership": 7011,
      "pursued": 7012,
      "friendly": 7013,
      "axis": 7014,
      "tasks": 7015,
      "encourage": 7016,
      "displays": 7017,
      "descended": 7018,
      "reportedly": 7019,
      "babwe": 7020,
      "harmony": 7021,
      "kelley": 7022,
      "kellogg": 7023,
      "ometres": 7024,
      "conventional": 7025,
      "documents": 7026,
      "documentary": 7027,
      "calculators": 7028,
      "homosexuality": 7029,
      "purchased": 7030,
      "astronomers": 7031,
      "driven": 7032,
      "lenin": 7033,
      "anzac": 7034,
      "convert": 7035,
      "converted": 7036,
      "consequence": 7037,
      "consequences": 7038,
      "consequently": 7039,
      "proceeding": 7040,
      "proceedings": 7041,
      "containing": 7042,
      "collectivism": 7043,
      "nominated": 7044,
      "amoeboid": 7045,
      "enjoyment": 7046,
      "hurd": 7047,
      "machinery": 7048,
      "nitric": 7049,
      "nitrogen": 7050,
      "pulitzer": 7051,
      "witt": 7052,
      "portrayal": 7053,
      "destructive": 7054,
      "electrons": 7055,
      "danneskjold": 7056,
      "crypto": 7057,
      "fraction": 7058,
      "housing": 7059,
      "tutsi": 7060,
      "vocal": 7061,
      "atlanta": 7062,
      "atlantic": 7063,
      "automobile": 7064,
      "accurate": 7065,
      "odyssey": 7066,
      "publisher": 7067,
      "distinguish": 7068,
      "ethiopian": 7069,
      "cyanobacter": 7070,
      "aerial": 7071,
      "gershwin": 7072,
      "praised": 7073,
      "wanted": 7074,
      "inauguration": 7075,
      "streets": 7076,
      "olympics": 7077,
      "divine": 7078,
      "mysticism": 7079,
      "ethnography": 7080,
      "phosphoric": 7081,
      "convincing": 7082,
      "fleming": 7083,
      "jimmy": 7084,
      "jacques": 7085,
      "merely": 7086,
      "rhodes": 7087,
      "inquiry": 7088,
      "enhance": 7089,
      "enhanced": 7090,
      "isaac": 7091,
      "argent": 7092,
      "comedy": 7093,
      "elsewhere": 7094,
      "compatible": 7095,
      "friedrich": 7096,
      "gathering": 7097,
      "tournaments": 7098,
      "impairment": 7099,
      "impairments": 7100,
      "citizenship": 7101,
      "athena": 7102,
      "flowers": 7103,
      "routine": 7104,
      "chairman": 7105,
      "arette": 7106,
      "comparisons": 7107,
      "hypothesis": 7108,
      "brokeback": 7109,
      "fragments": 7110,
      "sacrifice": 7111,
      "reciprocal": 7112,
      "appreciate": 7113,
      "fertilizers": 7114,
      "tetrapods": 7115,
      "kilometres": 7116,
      "seceded": 7117,
      "helios": 7118,
      "urgell": 7119,
      "composer": 7120,
      "labels": 7121,
      "expanded": 7122,
      "adventure": 7123,
      "limitations": 7124,
      "assassinated": 7125,
      "cigarette": 7126,
      "scudder": 7127,
      "theatre": 7128,
      "betray": 7129,
      "terrorism": 7130,
      "protists": 7131,
      "accidentally": 7132,
      "boroughs": 7133,
      "lawyers": 7134,
      "saturated": 7135,
      "investigations": 7136,
      "processual": 7137,
      "barton": 7138,
      "fabric": 7139,
      "hierarchy": 7140,
      "arnold": 7141,
      "ignored": 7142,
      "conference": 7143,
      "consumption": 7144,
      "retirement": 7145,
      "taoism": 7146,
      "professionals": 7147,
      "prophecy": 7148,
      "multicultural": 7149,
      "entertainment": 7150,
      "punishment": 7151,
      "scheduled": 7152,
      "lighter": 7153,
      "zayed": 7154,
      "recommended": 7155,
      "repudi": 7156,
      "lyceum": 7157,
      "delete": 7158,
      "conjugate": 7159,
      "superior": 7160,
      "prosecution": 7161,
      "esteem": 7162,
      "bertram": 7163,
      "prejudice": 7164,
      "fossil": 7165,
      "membranes": 7166,
      "advantage": 7167,
      "roscopic": 7168,
      "vocabulary": 7169,
      "incorporated": 7170,
      "enlightenment": 7171,
      "baptist": 7172,
      "cgt": 7173,
      "dairy": 7174,
      "gonzales": 7175,
      "gnostic": 7176,
      "hulk": 7177,
      "hanging": 7178,
      "ludwig": 7179,
      "zimbabwe": 7180,
      "inspiration": 7181,
      "ennial": 7182,
      "orbitals": 7183,
      "arraignment": 7184,
      "stirner": 7185,
      "olithic": 7186,
      "deemed": 7187,
      "immediately": 7188,
      "emperor": 7189,
      "proponents": 7190,
      "quentin": 7191,
      "dubbed": 7192,
      "endorse": 7193,
      "transponder": 7194,
      "calendar": 7195,
      "registered": 7196,
      "futurama": 7197,
      "elixir": 7198,
      "satellite": 7199,
      "bilingual": 7200,
      "cincinnat": 7201,
      "eighth": 7202,
      "groo": 7203,
      "jackson": 7204,
      "prices": 7205,
      "pierre": 7206,
      "sangamon": 7207,
      "skeptical": 7208,
      "taylor": 7209,
      "yukon": 7210,
      "amateur": 7211,
      "immortality": 7212,
      "whatever": 7213,
      "consensus": 7214,
      "cemetery": 7215,
      "intervention": 7216,
      "indictment": 7217,
      "crouching": 7218,
      "paracel": 7219,
      "familiar": 7220,
      "equilibrium": 7221,
      "periplanar": 7222,
      "delicatessen": 7223,
      "catalonia": 7224,
      "cincinnati": 7225,
      "aj": 7226,
      "aur": 7227,
      "apo": 7228,
      "bat": 7229,
      "bone": 7230,
      "bil": 7231,
      "brom": 7232,
      "bates": 7233,
      "bask": 7234,
      "bold": 7235,
      "bull": 7236,
      "banned": 7237,
      "cly": 7238,
      "cau": 7239,
      "cous": 7240,
      "card": 7241,
      "cited": 7242,
      "coup": 7243,
      "dion": 7244,
      "dro": 7245,
      "dings": 7246,
      "dav": 7247,
      "dling": 7248,
      "dimin": 7249,
      "ees": 7250,
      "eks": 7251,
      "emotion": 7252,
      "fing": 7253,
      "fet": 7254,
      "fans": 7255,
      "fame": 7256,
      "fold": 7257,
      "flaw": 7258,
      "gut": 7259,
      "gby": 7260,
      "gla": 7261,
      "gling": 7262,
      "gains": 7263,
      "ht": 7264,
      "hion": 7265,
      "hno": 7266,
      "hill": 7267,
      "hall": 7268,
      "hindu": 7269,
      "hired": 7270,
      "hides": 7271,
      "hatch": 7272,
      "ience": 7273,
      "iary": 7274,
      "iod": 7275,
      "jr": 7276,
      "jon": 7277,
      "jor": 7278,
      "jab": 7279,
      "jay": 7280,
      "jack": 7281,
      "kg": 7282,
      "kl": 7283,
      "kis": 7284,
      "kur": 7285,
      "kir": 7286,
      "ket": 7287,
      "khal": 7288,
      "khail": 7289,
      "lich": 7290,
      "lley": 7291,
      "mou": 7292,
      "mim": 7293,
      "mno": 7294,
      "mits": 7295,
      "matic": 7296,
      "maps": 7297,
      "mime": 7298,
      "nym": 7299,
      "nash": 7300,
      "nfc": 7301,
      "ost": 7302,
      "oph": 7303,
      "oreg": 7304,
      "ozoa": 7305,
      "pit": 7306,
      "pak": 7307,
      "pitch": 7308,
      "piracy": 7309,
      "rw": 7310,
      "sic": 7311,
      "smo": 7312,
      "sli": 7313,
      "schem": 7314,
      "swe": 7315,
      "sadd": 7316,
      "sander": 7317,
      "sphere": 7318,
      "tap": 7319,
      "tac": 7320,
      "tough": 7321,
      "tings": 7322,
      "tane": 7323,
      "tick": 7324,
      "tanz": 7325,
      "trend": 7326,
      "uly": 7327,
      "vive": 7328,
      "vents": 7329,
      "varies": 7330,
      "vlad": 7331,
      "wool": 7332,
      "yan": 7333,
      "yel": 7334,
      "yards": 7335,
      "zig": 7336,
      "zones": 7337,
      "thal": 7338,
      "thum": 7339,
      "inn": 7340,
      "iny": 7341,
      "inic": 7342,
      "infe": 7343,
      "inform": 7344,
      "inations": 7345,
      "inals": 7346,
      "incomplete": 7347,
      "inorganic": 7348,
      "eras": 7349,
      "erra": 7350,
      "erik": 7351,
      "anic": 7352,
      "anab": 7353,
      "ante": 7354,
      "ange": 7355,
      "ansel": 7356,
      "ancing": 7357,
      "anura": 7358,
      "oner": 7359,
      "onis": 7360,
      "onies": 7361,
      "theology": 7362,
      "thess": 7363,
      "rev": 7364,
      "rey": 7365,
      "rein": 7366,
      "rean": 7367,
      "rear": 7368,
      "reformation": 7369,
      "rehab": 7370,
      "reforms": 7371,
      "relied": 7372,
      "reviews": 7373,
      "relies": 7374,
      "repatri": 7375,
      "remn": 7376,
      "resem": 7377,
      "rejection": 7378,
      "reporters": 7379,
      "remarks": 7380,
      "ala": 7381,
      "alge": 7382,
      "alum": 7383,
      "alous": 7384,
      "altogether": 7385,
      "allies": 7386,
      "ening": 7387,
      "enne": 7388,
      "eness": 7389,
      "encl": 7390,
      "ensur": 7391,
      "enlist": 7392,
      "enforced": 7393,
      "enberg": 7394,
      "atar": 7395,
      "atol": 7396,
      "isse": 7397,
      "isition": 7398,
      "orship": 7399,
      "orney": 7400,
      "edly": 7401,
      "aration": 7402,
      "arians": 7403,
      "arbit": 7404,
      "arjun": 7405,
      "arose": 7406,
      "oflag": 7407,
      "icks": 7408,
      "icuous": 7409,
      "andra": 7410,
      "itate": 7411,
      "itud": 7412,
      "itiv": 7413,
      "topo": 7414,
      "tomac": 7415,
      "tomorrow": 7416,
      "ionic": 7417,
      "sta": 7418,
      "stor": 7419,
      "steven": 7420,
      "stability": 7421,
      "stances": 7422,
      "chom": 7423,
      "chad": 7424,
      "chart": 7425,
      "leap": 7426,
      "lets": 7427,
      "roe": 7428,
      "rog": 7429,
      "roat": 7430,
      "roark": 7431,
      "robin": 7432,
      "sect": 7433,
      "seap": 7434,
      "secre": 7435,
      "secession": 7436,
      "ented": 7437,
      "entering": 7438,
      "veto": 7439,
      "oly": 7440,
      "oline": 7441,
      "ille": 7442,
      "ilog": 7443,
      "ilitate": 7444,
      "omorph": 7445,
      "lycomed": 7446,
      "lyrics": 7447,
      "lysander": 7448,
      "igs": 7449,
      "beth": 7450,
      "bees": 7451,
      "beit": 7452,
      "beach": 7453,
      "begg": 7454,
      "beloved": 7455,
      "dee": 7456,
      "devi": 7457,
      "detr": 7458,
      "degre": 7459,
      "deities": 7460,
      "determ": 7461,
      "delaw": 7462,
      "devil": 7463,
      "devo": 7464,
      "depression": 7465,
      "delos": 7466,
      "decolonization": 7467,
      "amy": 7468,
      "amem": 7469,
      "aments": 7470,
      "simon": 7471,
      "inex": 7472,
      "forth": 7473,
      "twice": 7474,
      "imir": 7475,
      "imply": 7476,
      "impose": 7477,
      "ista": 7478,
      "istan": 7479,
      "istically": 7480,
      "conway": 7481,
      "concre": 7482,
      "consin": 7483,
      "confron": 7484,
      "config": 7485,
      "agri": 7486,
      "agencies": 7487,
      "agamem": 7488,
      "ader": 7489,
      "adject": 7490,
      "adding": 7491,
      "cellan": 7492,
      "undi": 7493,
      "units": 7494,
      "uncommon": 7495,
      "unfair": 7496,
      "unreal": 7497,
      "unsuccessful": 7498,
      "unstable": 7499,
      "uncondition": 7500,
      "unfortun": 7501,
      "verw": 7502,
      "vermont": 7503,
      "suan": 7504,
      "suic": 7505,
      "suez": 7506,
      "suitable": 7507,
      "tered": 7508,
      "logo": 7509,
      "abc": 7510,
      "abort": 7511,
      "absur": 7512,
      "abuses": 7513,
      "aborate": 7514,
      "moist": 7515,
      "modi": 7516,
      "mosa": 7517,
      "moves": 7518,
      "moham": 7519,
      "usions": 7520,
      "pel": 7521,
      "peer": 7522,
      "nos": 7523,
      "noam": 7524,
      "novo": 7525,
      "utarch": 7526,
      "ury": 7527,
      "urers": 7528,
      "urged": 7529,
      "raven": 7530,
      "rafa": 7531,
      "raise": 7532,
      "ulsory": 7533,
      "sodi": 7534,
      "wires": 7535,
      "irregular": 7536,
      "thermo": 7537,
      "therap": 7538,
      "phne": 7539,
      "phae": 7540,
      "eme": 7541,
      "embo": 7542,
      "embody": 7543,
      "embry": 7544,
      "withdraw": 7545,
      "pock": 7546,
      "poets": 7547,
      "potomac": 7548,
      "compre": 7549,
      "comics": 7550,
      "complic": 7551,
      "compete": 7552,
      "compositions": 7553,
      "prolet": 7554,
      "proxim": 7555,
      "riding": 7556,
      "wasn": 7557,
      "exists": 7558,
      "excess": 7559,
      "expatri": 7560,
      "apable": 7561,
      "appoints": 7562,
      "dix": 7563,
      "dipl": 7564,
      "diak": 7565,
      "liked": 7566,
      "resc": 7567,
      "resort": 7568,
      "autom": 7569,
      "aculture": 7570,
      "estone": 7571,
      "fourteen": 7572,
      "elor": 7573,
      "eland": 7574,
      "elder": 7575,
      "elvis": 7576,
      "elders": 7577,
      "elaborate": 7578,
      "ogen": 7579,
      "ogle": 7580,
      "gov": 7581,
      "google": 7582,
      "plains": 7583,
      "plague": 7584,
      "plutarch": 7585,
      "hism": 7586,
      "actic": 7587,
      "incapable": 7588,
      "vikings": 7589,
      "neop": 7590,
      "nealy": 7591,
      "opposes": 7592,
      "allan": 7593,
      "allud": 7594,
      "haven": 7595,
      "archery": 7596,
      "teer": 7597,
      "trag": 7598,
      "dere": 7599,
      "derives": 7600,
      "worst": 7601,
      "ologue": 7602,
      "strands": 7603,
      "costs": 7604,
      "cothea": 7605,
      "dship": 7606,
      "iance": 7607,
      "notation": 7608,
      "notice": 7609,
      "duba": 7610,
      "boe": 7611,
      "boys": 7612,
      "boston": 7613,
      "bodia": 7614,
      "shore": 7615,
      "berke": 7616,
      "owed": 7617,
      "ricane": 7618,
      "geois": 7619,
      "perip": 7620,
      "permit": 7621,
      "persec": 7622,
      "umph": 7623,
      "prehistory": 7624,
      "precis": 7625,
      "predomin": 7626,
      "prepare": 7627,
      "precise": 7628,
      "pregn": 7629,
      "ultaneously": 7630,
      "outreach": 7631,
      "earned": 7632,
      "iday": 7633,
      "ifinals": 7634,
      "mead": 7635,
      "meets": 7636,
      "ansson": 7637,
      "aston": 7638,
      "astus": 7639,
      "cler": 7640,
      "tens": 7641,
      "tending": 7642,
      "gras": 7643,
      "grasp": 7644,
      "wars": 7645,
      "warrant": 7646,
      "aching": 7647,
      "achary": 7648,
      "bled": 7649,
      "blast": 7650,
      "blessed": 7651,
      "guest": 7652,
      "guided": 7653,
      "discour": 7654,
      "discret": 7655,
      "displayed": 7656,
      "discharge": 7657,
      "disagreement": 7658,
      "disambig": 7659,
      "ferry": 7660,
      "ferdin": 7661,
      "princes": 7662,
      "lowry": 7663,
      "cents": 7664,
      "centered": 7665,
      "ivable": 7666,
      "prescri": 7667,
      "ptic": 7668,
      "canon": 7669,
      "canal": 7670,
      "socio": 7671,
      "pup": 7672,
      "lahom": 7673,
      "rank": 7674,
      "ransom": 7675,
      "plets": 7676,
      "assess": 7677,
      "interven": 7678,
      "interview": 7679,
      "interactions": 7680,
      "posing": 7681,
      "max": 7682,
      "mauss": 7683,
      "spelling": 7684,
      "timber": 7685,
      "spon": 7686,
      "spor": 7687,
      "spac": 7688,
      "spons": 7689,
      "spanning": 7690,
      "rena": 7691,
      "chemists": 7692,
      "gerald": 7693,
      "deser": 7694,
      "desired": 7695,
      "fault": 7696,
      "facial": 7697,
      "fauna": 7698,
      "newton": 7699,
      "hugo": 7700,
      "otro": 7701,
      "polls": 7702,
      "inted": 7703,
      "thereof": 7704,
      "thereafter": 7705,
      "dos": 7706,
      "door": 7707,
      "versa": 7708,
      "charlat": 7709,
      "inclined": 7710,
      "anime": 7711,
      "animator": 7712,
      "fles": 7713,
      "ruth": 7714,
      "rugby": 7715,
      "cars": 7716,
      "cargo": 7717,
      "carries": 7718,
      "corre": 7719,
      "coria": 7720,
      "ellates": 7721,
      "statehood": 7722,
      "joan": 7723,
      "joining": 7724,
      "grey": 7725,
      "eleven": 7726,
      "electr": 7727,
      "oklahom": 7728,
      "trail": 7729,
      "traits": 7730,
      "traces": 7731,
      "traced": 7732,
      "trapped": 7733,
      "marat": 7734,
      "marble": 7735,
      "marcel": 7736,
      "obsole": 7737,
      "llers": 7738,
      "acious": 7739,
      "overthrow": 7740,
      "shepher": 7741,
      "cave": 7742,
      "cahy": 7743,
      "sav": 7744,
      "sahel": 7745,
      "sels": 7746,
      "subgroup": 7747,
      "subsist": 7748,
      "subdivided": 7749,
      "transformation": 7750,
      "grouped": 7751,
      "highlands": 7752,
      "surge": 7753,
      "surprising": 7754,
      "survive": 7755,
      "develops": 7756,
      "compiled": 7757,
      "compulsory": 7758,
      "crew": 7759,
      "creates": 7760,
      "curb": 7761,
      "curios": 7762,
      "fired": 7763,
      "attorney": 7764,
      "systematically": 7765,
      "anyone": 7766,
      "alkene": 7767,
      "engaged": 7768,
      "cyn": 7769,
      "cyber": 7770,
      "cyclo": 7771,
      "cyparis": 7772,
      "anthropologist": 7773,
      "aristot": 7774,
      "baseline": 7775,
      "standardi": 7776,
      "myst": 7777,
      "crime": 7778,
      "crash": 7779,
      "metres": 7780,
      "metall": 7781,
      "metics": 7782,
      "captain": 7783,
      "capacity": 7784,
      "governing": 7785,
      "vessels": 7786,
      "undergo": 7787,
      "alaskans": 7788,
      "playboy": 7789,
      "bones": 7790,
      "schwart": 7791,
      "apollin": 7792,
      "foundational": 7793,
      "whereby": 7794,
      "liner": 7795,
      "sensors": 7796,
      "tribe": 7797,
      "tribes": 7798,
      "tribun": 7799,
      "triprotic": 7800,
      "triumph": 7801,
      "park": 7802,
      "parad": 7803,
      "paraffin": 7804,
      "chanan": 7805,
      "examine": 7806,
      "examination": 7807,
      "naturally": 7808,
      "organon": 7809,
      "organised": 7810,
      "organize": 7811,
      "acea": 7812,
      "acetic": 7813,
      "hym": 7814,
      "hybri": 7815,
      "naval": 7816,
      "nazi": 7817,
      "persist": 7818,
      "regime": 7819,
      "economists": 7820,
      "month": 7821,
      "filed": 7822,
      "filament": 7823,
      "filose": 7824,
      "sinking": 7825,
      "pride": 7826,
      "samuel": 7827,
      "franz": 7828,
      "shipping": 7829,
      "bushel": 7830,
      "factor": 7831,
      "depth": 7832,
      "depict": 7833,
      "universals": 7834,
      "bris": 7835,
      "brut": 7836,
      "brilli": 7837,
      "referenced": 7838,
      "consideration": 7839,
      "extinct": 7840,
      "bordered": 7841,
      "distur": 7842,
      "namely": 7843,
      "greatness": 7844,
      "retre": 7845,
      "retired": 7846,
      "physically": 7847,
      "signal": 7848,
      "trades": 7849,
      "trading": 7850,
      "characterised": 7851,
      "individually": 7852,
      "personnel": 7853,
      "deny": 7854,
      "mikhail": 7855,
      "lett": 7856,
      "originating": 7857,
      "johann": 7858,
      "johansson": 7859,
      "particles": 7860,
      "philosophically": 7861,
      "domains": 7862,
      "clean": 7863,
      "epis": 7864,
      "epage": 7865,
      "anni": 7866,
      "homepage": 7867,
      "ronic": 7868,
      "ronium": 7869,
      "kington": 7870,
      "imported": 7871,
      "apply": 7872,
      "applying": 7873,
      "hamito": 7874,
      "helic": 7875,
      "equation": 7876,
      "equated": 7877,
      "equally": 7878,
      "statism": 7879,
      "johnston": 7880,
      "grade": 7881,
      "grains": 7882,
      "collections": 7883,
      "collectively": 7884,
      "craf": 7885,
      "crack": 7886,
      "crazy": 7887,
      "requiring": 7888,
      "balph": 7889,
      "paired": 7890,
      "refusing": 7891,
      "hosp": 7892,
      "dys": 7893,
      "dying": 7894,
      "supports": 7895,
      "buo": 7896,
      "buchanan": 7897,
      "clos": 7898,
      "clothing": 7899,
      "clocks": 7900,
      "clothes": 7901,
      "missour": 7902,
      "miscellan": 7903,
      "solutions": 7904,
      "radclif": 7905,
      "ralph": 7906,
      "operator": 7907,
      "operators": 7908,
      "sympath": 7909,
      "sympathetic": 7910,
      "sons": 7911,
      "winds": 7912,
      "sitting": 7913,
      "males": 7914,
      "poster": 7915,
      "brook": 7916,
      "broken": 7917,
      "primitivism": 7918,
      "daphne": 7919,
      "freely": 7920,
      "purple": 7921,
      "expense": 7922,
      "hydronium": 7923,
      "burundi": 7924,
      "skilled": 7925,
      "civilisation": 7926,
      "legacy": 7927,
      "limits": 7928,
      "anglo": 7929,
      "angola": 7930,
      "steve": 7931,
      "steam": 7932,
      "athletic": 7933,
      "ibn": 7934,
      "antiperiplanar": 7935,
      "banquet": 7936,
      "cambodia": 7937,
      "sometime": 7938,
      "arianism": 7939,
      "breath": 7940,
      "bara": 7941,
      "barn": 7942,
      "barnes": 7943,
      "barbara": 7944,
      "synthesis": 7945,
      "associates": 7946,
      "drama": 7947,
      "drink": 7948,
      "gestures": 7949,
      "featured": 7950,
      "donations": 7951,
      "responds": 7952,
      "respondent": 7953,
      "markets": 7954,
      "nerve": 7955,
      "ographer": 7956,
      "description": 7957,
      "culus": 7958,
      "vored": 7959,
      "voters": 7960,
      "fieldwork": 7961,
      "halo": 7962,
      "runner": 7963,
      "atorial": 7964,
      "scientist": 7965,
      "gaza": 7966,
      "enses": 7967,
      "smallest": 7968,
      "incidence": 7969,
      "leftist": 7970,
      "approved": 7971,
      "handling": 7972,
      "vietnames": 7973,
      "cub": 7974,
      "cuit": 7975,
      "cuba": 7976,
      "cuff": 7977,
      "careful": 7978,
      "nomadic": 7979,
      "turning": 7980,
      "simultaneously": 7981,
      "bcd": 7982,
      "sank": 7983,
      "teleprinter": 7984,
      "holiday": 7985,
      "evolve": 7986,
      "receivers": 7987,
      "sexually": 7988,
      "kenned": 7989,
      "ucs": 7990,
      "functions": 7991,
      "testing": 7992,
      "chloride": 7993,
      "extending": 7994,
      "incredi": 7995,
      "greenhouse": 7996,
      "greenspan": 7997,
      "methodology": 7998,
      "psychologists": 7999,
      "torn": 8000,
      "torres": 8001,
      "learned": 8002,
      "continuing": 8003,
      "continuous": 8004,
      "songs": 8005,
      "strains": 8006,
      "lectures": 8007,
      "identifies": 8008,
      "websites": 8009,
      "meaningless": 8010,
      "females": 8011,
      "penal": 8012,
      "choices": 8013,
      "birds": 8014,
      "palace": 8015,
      "salvation": 8016,
      "salient": 8017,
      "beginnings": 8018,
      "foreigners": 8019,
      "copy": 8020,
      "jealous": 8021,
      "swed": 8022,
      "swick": 8023,
      "administered": 8024,
      "liberia": 8025,
      "electro": 8026,
      "specialized": 8027,
      "lacking": 8028,
      "sung": 8029,
      "observers": 8030,
      "observing": 8031,
      "situated": 8032,
      "facilitate": 8033,
      "saturn": 8034,
      "debated": 8035,
      "debates": 8036,
      "periodic": 8037,
      "cognitive": 8038,
      "declaration": 8039,
      "expert": 8040,
      "experiments": 8041,
      "newsstand": 8042,
      "destroyer": 8043,
      "spooner": 8044,
      "secular": 8045,
      "implied": 8046,
      "cellular": 8047,
      "diagnoses": 8048,
      "planted": 8049,
      "henius": 8050,
      "reduce": 8051,
      "cheap": 8052,
      "excavated": 8053,
      "augustine": 8054,
      "augustinian": 8055,
      "bourgeois": 8056,
      "citric": 8057,
      "fashion": 8058,
      "happen": 8059,
      "thirteen": 8060,
      "consistently": 8061,
      "looks": 8062,
      "kinds": 8063,
      "explore": 8064,
      "exploit": 8065,
      "explosive": 8066,
      "defenders": 8067,
      "surveying": 8068,
      "photos": 8069,
      "feminists": 8070,
      "rationality": 8071,
      "itarianism": 8072,
      "ilibus": 8073,
      "protected": 8074,
      "inventions": 8075,
      "industrialists": 8076,
      "aliens": 8077,
      "experienced": 8078,
      "migrations": 8079,
      "enterprise": 8080,
      "enterprises": 8081,
      "decisions": 8082,
      "phaest": 8083,
      "indicate": 8084,
      "indicating": 8085,
      "indicator": 8086,
      "categor": 8087,
      "duties": 8088,
      "punct": 8089,
      "squit": 8090,
      "telling": 8091,
      "healthcare": 8092,
      "birthday": 8093,
      "birthplace": 8094,
      "museums": 8095,
      "dinoflag": 8096,
      "thompson": 8097,
      "emergence": 8098,
      "eyeless": 8099,
      "monetary": 8100,
      "panel": 8101,
      "panacea": 8102,
      "wisdom": 8103,
      "wisconsin": 8104,
      "andrei": 8105,
      "circuit": 8106,
      "commercially": 8107,
      "capturing": 8108,
      "biggest": 8109,
      "cataly": 8110,
      "fruited": 8111,
      "rises": 8112,
      "rejecting": 8113,
      "starring": 8114,
      "mythologie": 8115,
      "friendship": 8116,
      "questioned": 8117,
      "quarterfinal": 8118,
      "integration": 8119,
      "besides": 8120,
      "imaginary": 8121,
      "confisc": 8122,
      "prompt": 8123,
      "planet": 8124,
      "planets": 8125,
      "companion": 8126,
      "employed": 8127,
      "bureaucracy": 8128,
      "glory": 8129,
      "muri": 8130,
      "murray": 8131,
      "murdered": 8132,
      "liberties": 8133,
      "weakness": 8134,
      "holding": 8135,
      "corrupted": 8136,
      "biotechnology": 8137,
      "biodiversity": 8138,
      "settlers": 8139,
      "taxation": 8140,
      "chlorophy": 8141,
      "temperate": 8142,
      "journalist": 8143,
      "pushing": 8144,
      "vania": 8145,
      "anova": 8146,
      "theophr": 8147,
      "losses": 8148,
      "complain": 8149,
      "manifested": 8150,
      "answered": 8151,
      "participation": 8152,
      "participate": 8153,
      "patriarchy": 8154,
      "authoritarianism": 8155,
      "bankrupt": 8156,
      "syndicalists": 8157,
      "multiplication": 8158,
      "aquaculture": 8159,
      "mund": 8160,
      "instruction": 8161,
      "selling": 8162,
      "affect": 8163,
      "mathematic": 8164,
      "evaluation": 8165,
      "marxist": 8166,
      "marxism": 8167,
      "translates": 8168,
      "distributed": 8169,
      "harvested": 8170,
      "breaks": 8171,
      "columbian": 8172,
      "chiefly": 8173,
      "avier": 8174,
      "tropics": 8175,
      "encodings": 8176,
      "semifinals": 8177,
      "extraction": 8178,
      "illustrate": 8179,
      "bottom": 8180,
      "contemporaries": 8181,
      "assignment": 8182,
      "flights": 8183,
      "wilson": 8184,
      "attracting": 8185,
      "arranged": 8186,
      "seeds": 8187,
      "achieving": 8188,
      "speculative": 8189,
      "document": 8190,
      "mysteriously": 8191,
      "domesticated": 8192,
      "phoenician": 8193,
      "framework": 8194,
      "bulk": 8195,
      "bullet": 8196,
      "driving": 8197,
      "fatty": 8198,
      "relying": 8199,
      "reliable": 8200,
      "quantities": 8201,
      "performing": 8202,
      "transmutations": 8203,
      "equalization": 8204,
      "collectiv": 8205,
      "solidarity": 8206,
      "committees": 8207,
      "burned": 8208,
      "gifted": 8209,
      "hurricane": 8210,
      "humor": 8211,
      "machines": 8212,
      "pairs": 8213,
      "pieces": 8214,
      "guidelines": 8215,
      "reflection": 8216,
      "delayed": 8217,
      "advancement": 8218,
      "electronic": 8219,
      "alternatively": 8220,
      "cryptic": 8221,
      "dimethyl": 8222,
      "fractions": 8223,
      "goran": 8224,
      "revenge": 8225,
      "aligned": 8226,
      "atlantis": 8227,
      "accuracy": 8228,
      "accurately": 8229,
      "networks": 8230,
      "willingness": 8231,
      "initiated": 8232,
      "python": 8233,
      "illustrated": 8234,
      "illustrations": 8235,
      "husbandry": 8236,
      "aesthetic": 8237,
      "zabeth": 8238,
      "enemy": 8239,
      "street": 8240,
      "concentrated": 8241,
      "hexane": 8242,
      "liquid": 8243,
      "liquids": 8244,
      "marginal": 8245,
      "crisy": 8246,
      "profitable": 8247,
      "dramatically": 8248,
      "structuralism": 8249,
      "microcosm": 8250,
      "photosynthetic": 8251,
      "dialects": 8252,
      "phosphate": 8253,
      "vowels": 8254,
      "jurisdiction": 8255,
      "elizabeth": 8256,
      "rhiz": 8257,
      "belonged": 8258,
      "exclusive": 8259,
      "incorrect": 8260,
      "portugal": 8261,
      "princeton": 8262,
      "hermeticism": 8263,
      "carrying": 8264,
      "attacked": 8265,
      "muslims": 8266,
      "nutrition": 8267,
      "frog": 8268,
      "frogs": 8269,
      "pilkington": 8270,
      "reveals": 8271,
      "chronology": 8272,
      "cooler": 8273,
      "geometry": 8274,
      "disputes": 8275,
      "weapon": 8276,
      "victims": 8277,
      "hypocrisy": 8278,
      "fragment": 8279,
      "mediums": 8280,
      "challenged": 8281,
      "challenges": 8282,
      "reciprocity": 8283,
      "tetrahed": 8284,
      "wounded": 8285,
      "deeds": 8286,
      "affinity": 8287,
      "coalition": 8288,
      "outputs": 8289,
      "reflecting": 8290,
      "succeeded": 8291,
      "threatened": 8292,
      "sustainable": 8293,
      "bolshevik": 8294,
      "louisiana": 8295,
      "contradiction": 8296,
      "kabbal": 8297,
      "packing": 8298,
      "scene": 8299,
      "scenes": 8300,
      "remedy": 8301,
      "remedies": 8302,
      "attendance": 8303,
      "orchest": 8304,
      "orchid": 8305,
      "exceeding": 8306,
      "resolved": 8307,
      "worthless": 8308,
      "maximum": 8309,
      "minimum": 8310,
      "gregory": 8311,
      "capita": 8312,
      "lawyer": 8313,
      "saturday": 8314,
      "dictatorship": 8315,
      "processualism": 8316,
      "drugs": 8317,
      "hutu": 8318,
      "treasure": 8319,
      "insects": 8320,
      "replacement": 8321,
      "isolated": 8322,
      "editorial": 8323,
      "assumes": 8324,
      "veterans": 8325,
      "opposing": 8326,
      "opposite": 8327,
      "cowshed": 8328,
      "pronounced": 8329,
      "voluntary": 8330,
      "passionate": 8331,
      "insurrectionary": 8332,
      "consciousness": 8333,
      "mistake": 8334,
      "makhno": 8335,
      "nagarjun": 8336,
      "pipe": 8337,
      "wedding": 8338,
      "watching": 8339,
      "infantile": 8340,
      "remarkable": 8341,
      "arrhenius": 8342,
      "stroke": 8343,
      "velocity": 8344,
      "conversation": 8345,
      "promised": 8346,
      "exercis": 8347,
      "expressions": 8348,
      "manipulation": 8349,
      "quoted": 8350,
      "permanent": 8351,
      "clinicians": 8352,
      "disguise": 8353,
      "dissolved": 8354,
      "ignorance": 8355,
      "weeds": 8356,
      "sahlins": 8357,
      "crimes": 8358,
      "differentiated": 8359,
      "hungary": 8360,
      "psychiatrist": 8361,
      "bahrain": 8362,
      "tariffs": 8363,
      "nutrient": 8364,
      "buddhism": 8365,
      "detectors": 8366,
      "exhibit": 8367,
      "negotiations": 8368,
      "abbreviation": 8369,
      "aerosol": 8370,
      "cinema": 8371,
      "jeff": 8372,
      "karyotic": 8373,
      "khoisan": 8374,
      "mummy": 8375,
      "pirate": 8376,
      "vulner": 8377,
      "indefinitely": 8378,
      "enormous": 8379,
      "espous": 8380,
      "chaos": 8381,
      "vehicles": 8382,
      "imperial": 8383,
      "unciation": 8384,
      "racist": 8385,
      "width": 8386,
      "illumin": 8387,
      "archeology": 8388,
      "coordinated": 8389,
      "shocked": 8390,
      "perpetual": 8391,
      "tendencies": 8392,
      "foreshad": 8393,
      "maurit": 8394,
      "carinthia": 8395,
      "oxidation": 8396,
      "earthquake": 8397,
      "pennsyl": 8398,
      "macrocosm": 8399,
      "dialogues": 8400,
      "municipality": 8401,
      "symbiosis": 8402,
      "prosperous": 8403,
      "paleoethno": 8404,
      "spontaneous": 8405,
      "aeneas": 8406,
      "glyph": 8407,
      "gallons": 8408,
      "horses": 8409,
      "kidn": 8410,
      "mulcahy": 8411,
      "nsted": 8412,
      "nilo": 8413,
      "nadal": 8414,
      "pritch": 8415,
      "wrath": 8416,
      "tomato": 8417,
      "leucothea": 8418,
      "beasts": 8419,
      "conspicuous": 8420,
      "sufficient": 8421,
      "suddenly": 8422,
      "terrible": 8423,
      "hetero": 8424,
      "peasants": 8425,
      "reelected": 8426,
      "etruscan": 8427,
      "shaped": 8428,
      "preparation": 8429,
      "diseases": 8430,
      "disintegrative": 8431,
      "spencer": 8432,
      "desirable": 8433,
      "pollution": 8434,
      "tribute": 8435,
      "parasites": 8436,
      "brunswick": 8437,
      "epistemology": 8438,
      "tremendous": 8439,
      "argentina": 8440,
      "grooves": 8441,
      "paracelsus": 8442,
      "ajax": 8443,
      "clytia": 8444,
      "diony": 8445,
      "droplets": 8446,
      "davy": 8447,
      "glaci": 8448,
      "jabir": 8449,
      "nymph": 8450,
      "oregon": 8451,
      "saddam": 8452,
      "tacit": 8453,
      "tanzania": 8454,
      "ulysses": 8455,
      "vladimir": 8456,
      "yellow": 8457,
      "anabapt": 8458,
      "anselm": 8459,
      "repatriation": 8460,
      "ensuring": 8461,
      "stevens": 8462,
      "chomsky": 8463,
      "lycomedes": 8464,
      "detriment": 8465,
      "degrees": 8466,
      "determine": 8467,
      "delaware": 8468,
      "devoid": 8469,
      "concrete": 8470,
      "configuration": 8471,
      "agamemnon": 8472,
      "abortion": 8473,
      "modification": 8474,
      "mosaic": 8475,
      "rafael": 8476,
      "sodium": 8477,
      "irregularities": 8478,
      "phaethon": 8479,
      "comprehen": 8480,
      "proletari": 8481,
      "proximity": 8482,
      "diplom": 8483,
      "dubai": 8484,
      "berkeley": 8485,
      "precision": 8486,
      "discouraged": 8487,
      "discretion": 8488,
      "disambiguation": 8489,
      "ferdinand": 8490,
      "electrical": 8491,
      "oklahoma": 8492,
      "obsolete": 8493,
      "subsistence": 8494,
      "cyparissus": 8495,
      "schwartz": 8496,
      "brilliant": 8497,
      "missouri": 8498,
      "miscellaneous": 8499,
      "radcliffe": 8500,
      "vietnamese": 8501,
      "kennedy": 8502,
      "salientia": 8503,
      "theophrastus": 8504,
      "pennsylvania": 8505,
      "ait": 8506,
      "acon": 8507,
      "aus": 8508,
      "aul": 8509,
      "aide": 8510,
      "abel": 8511,
      "aids": 8512,
      "bion": 8513,
      "bau": 8514,
      "bian": 8515,
      "bric": 8516,
      "bid": 8517,
      "bits": 8518,
      "bend": 8519,
      "bors": 8520,
      "bind": 8521,
      "bav": 8522,
      "bath": 8523,
      "bbc": 8524,
      "bounds": 8525,
      "baud": 8526,
      "cc": 8527,
      "cone": 8528,
      "cres": 8529,
      "cest": 8530,
      "cate": 8531,
      "cology": 8532,
      "cae": 8533,
      "cley": 8534,
      "cends": 8535,
      "cdd": 8536,
      "cash": 8537,
      "cimal": 8538,
      "croat": 8539,
      "dj": 8540,
      "dare": 8541,
      "dans": 8542,
      "dish": 8543,
      "ddy": 8544,
      "dick": 8545,
      "dress": 8546,
      "diment": 8547,
      "dale": 8548,
      "dime": 8549,
      "dressing": 8550,
      "eag": 8551,
      "eus": 8552,
      "fli": 8553,
      "fers": 8554,
      "fits": 8555,
      "fanci": 8556,
      "flaws": 8557,
      "flying": 8558,
      "flocks": 8559,
      "gine": 8560,
      "gap": 8561,
      "gay": 8562,
      "gel": 8563,
      "gaf": 8564,
      "gians": 8565,
      "gross": 8566,
      "gps": 8567,
      "gros": 8568,
      "gills": 8569,
      "hf": 8570,
      "hr": 8571,
      "han": 8572,
      "hers": 8573,
      "hens": 8574,
      "hires": 8575,
      "ij": 8576,
      "iar": 8577,
      "iver": 8578,
      "iven": 8579,
      "iant": 8580,
      "iology": 8581,
      "ike": 8582,
      "ients": 8583,
      "iques": 8584,
      "jen": 8585,
      "jed": 8586,
      "ku": 8587,
      "kan": 8588,
      "kon": 8589,
      "kle": 8590,
      "kus": 8591,
      "kman": 8592,
      "knot": 8593,
      "kok": 8594,
      "kcal": 8595,
      "kron": 8596,
      "kolay": 8597,
      "kheim": 8598,
      "lt": 8599,
      "lau": 8600,
      "lbo": 8601,
      "laugh": 8602,
      "mm": 8603,
      "mw": 8604,
      "mam": 8605,
      "mould": 8606,
      "mile": 8607,
      "matt": 8608,
      "mcen": 8609,
      "mapped": 8610,
      "mapping": 8611,
      "nan": 8612,
      "nol": 8613,
      "nich": 8614,
      "nish": 8615,
      "nbi": 8616,
      "nano": 8617,
      "ninth": 8618,
      "oth": 8619,
      "oci": 8620,
      "orel": 8621,
      "overs": 8622,
      "oste": 8623,
      "oases": 8624,
      "phe": 8625,
      "pact": 8626,
      "peder": 8627,
      "ppa": 8628,
      "pick": 8629,
      "pied": 8630,
      "plied": 8631,
      "pius": 8632,
      "passive": 8633,
      "pagan": 8634,
      "purely": 8635,
      "rin": 8636,
      "rut": 8637,
      "rum": 8638,
      "rud": 8639,
      "rary": 8640,
      "rhy": 8641,
      "raged": 8642,
      "rasian": 8643,
      "rfc": 8644,
      "rigor": 8645,
      "sn": 8646,
      "sle": 8647,
      "sig": 8648,
      "sag": 8649,
      "ssom": 8650,
      "ske": 8651,
      "scor": 8652,
      "sask": 8653,
      "sake": 8654,
      "sword": 8655,
      "saudi": 8656,
      "slime": 8657,
      "tz": 8658,
      "tent": 8659,
      "tam": 8660,
      "tad": 8661,
      "tart": 8662,
      "taf": 8663,
      "tak": 8664,
      "tid": 8665,
      "tast": 8666,
      "tts": 8667,
      "task": 8668,
      "tide": 8669,
      "tamaz": 8670,
      "tcas": 8671,
      "ux": 8672,
      "uan": 8673,
      "uil": 8674,
      "uce": 8675,
      "uity": 8676,
      "uum": 8677,
      "uations": 8678,
      "ulose": 8679,
      "vous": 8680,
      "vish": 8681,
      "vander": 8682,
      "vague": 8683,
      "ws": 8684,
      "wrest": 8685,
      "wanese": 8686,
      "xy": 8687,
      "xanth": 8688,
      "ximate": 8689,
      "xiii": 8690,
      "yal": 8691,
      "yar": 8692,
      "zz": 8693,
      "zil": 8694,
      "zation": 8695,
      "zap": 8696,
      "zant": 8697,
      "zens": 8698,
      "thr": 8699,
      "thou": 8700,
      "thra": 8701,
      "thri": 8702,
      "thres": 8703,
      "thrice": 8704,
      "thusi": 8705,
      "ini": 8706,
      "indo": 8707,
      "infl": 8708,
      "insul": 8709,
      "inner": 8710,
      "inert": 8711,
      "informal": 8712,
      "inherit": 8713,
      "eri": 8714,
      "erten": 8715,
      "ernest": 8716,
      "anxi": 8717,
      "onset": 8718,
      "onoff": 8719,
      "thet": 8720,
      "theas": 8721,
      "theus": 8722,
      "theft": 8723,
      "rea": 8724,
      "rez": 8725,
      "redi": 8726,
      "rene": 8727,
      "renew": 8728,
      "revers": 8729,
      "rebec": 8730,
      "reads": 8731,
      "rewards": 8732,
      "revision": 8733,
      "reproduction": 8734,
      "reput": 8735,
      "recovered": 8736,
      "reverse": 8737,
      "remember": 8738,
      "rebuild": 8739,
      "rebuilding": 8740,
      "rewarded": 8741,
      "revised": 8742,
      "reporter": 8743,
      "repressive": 8744,
      "replacing": 8745,
      "replied": 8746,
      "alu": 8747,
      "alis": 8748,
      "alus": 8749,
      "alities": 8750,
      "altit": 8751,
      "allot": 8752,
      "albeit": 8753,
      "ensu": 8754,
      "enqu": 8755,
      "ender": 8756,
      "ension": 8757,
      "ensed": 8758,
      "enlisted": 8759,
      "endum": 8760,
      "enraged": 8761,
      "enthusi": 8762,
      "ato": 8763,
      "atp": 8764,
      "atra": 8765,
      "atories": 8766,
      "atche": 8767,
      "atria": 8768,
      "isen": 8769,
      "isine": 8770,
      "isra": 8771,
      "iscent": 8772,
      "isons": 8773,
      "orf": 8774,
      "orle": 8775,
      "orce": 8776,
      "orus": 8777,
      "orcham": 8778,
      "edo": 8779,
      "edge": 8780,
      "edwin": 8781,
      "editing": 8782,
      "esc": 8783,
      "escap": 8784,
      "escal": 8785,
      "arre": 8786,
      "arante": 8787,
      "oft": 8788,
      "ofing": 8789,
      "asc": 8790,
      "aside": 8791,
      "icon": 8792,
      "icing": 8793,
      "icle": 8794,
      "icism": 8795,
      "icru": 8796,
      "iculture": 8797,
      "iculose": 8798,
      "andr": 8799,
      "andronic": 8800,
      "itted": 8801,
      "itating": 8802,
      "itives": 8803,
      "oul": 8804,
      "oux": 8805,
      "outer": 8806,
      "tower": 8807,
      "toys": 8808,
      "sting": 8809,
      "stun": 8810,
      "stef": 8811,
      "stance": 8812,
      "stagn": 8813,
      "stick": 8814,
      "stones": 8815,
      "storm": 8816,
      "stacles": 8817,
      "inghouse": 8818,
      "ingredi": 8819,
      "chat": 8820,
      "chism": 8821,
      "chants": 8822,
      "chick": 8823,
      "chylus": 8824,
      "lex": 8825,
      "leone": 8826,
      "leip": 8827,
      "levant": 8828,
      "rot": 8829,
      "rods": 8830,
      "seis": 8831,
      "select": 8832,
      "entrop": 8833,
      "entrance": 8834,
      "vet": 8835,
      "vegas": 8836,
      "olf": 8837,
      "olive": 8838,
      "ilst": 8839,
      "omass": 8840,
      "omni": 8841,
      "eros": 8842,
      "lyco": 8843,
      "lyndon": 8844,
      "igator": 8845,
      "bean": 8846,
      "beas": 8847,
      "beam": 8848,
      "beta": 8849,
      "beacon": 8850,
      "deco": 8851,
      "defer": 8852,
      "deleg": 8853,
      "dealt": 8854,
      "degrad": 8855,
      "devast": 8856,
      "amber": 8857,
      "amated": 8858,
      "amalg": 8859,
      "amni": 8860,
      "amended": 8861,
      "amerik": 8862,
      "sided": 8863,
      "siders": 8864,
      "sizes": 8865,
      "sify": 8866,
      "sierra": 8867,
      "inem": 8868,
      "inevit": 8869,
      "forward": 8870,
      "foramin": 8871,
      "forbear": 8872,
      "tway": 8873,
      "improper": 8874,
      "impot": 8875,
      "immaterial": 8876,
      "impet": 8877,
      "impression": 8878,
      "imprison": 8879,
      "imethyl": 8880,
      "whist": 8881,
      "whel": 8882,
      "whites": 8883,
      "whitt": 8884,
      "whilst": 8885,
      "consu": 8886,
      "confir": 8887,
      "construct": 8888,
      "condem": 8889,
      "concluded": 8890,
      "considers": 8891,
      "ags": 8892,
      "ager": 8893,
      "agro": 8894,
      "agend": 8895,
      "agger": 8896,
      "ading": 8897,
      "adjac": 8898,
      "advised": 8899,
      "admits": 8900,
      "ceut": 8901,
      "une": 8902,
      "unions": 8903,
      "unusually": 8904,
      "unofficial": 8905,
      "unified": 8906,
      "unchanged": 8907,
      "unaware": 8908,
      "unbranched": 8909,
      "undim": 8910,
      "unconstitutional": 8911,
      "unsaturated": 8912,
      "unculus": 8913,
      "vert": 8914,
      "verde": 8915,
      "verted": 8916,
      "suff": 8917,
      "terrain": 8918,
      "loan": 8919,
      "loid": 8920,
      "loys": 8921,
      "locked": 8922,
      "hein": 8923,
      "hewitt": 8924,
      "hecuba": 8925,
      "hephaest": 8926,
      "abi": 8927,
      "cious": 8928,
      "cianism": 8929,
      "ively": 8930,
      "modif": 8931,
      "usda": 8932,
      "ouris": 8933,
      "peach": 8934,
      "nobl": 8935,
      "noise": 8936,
      "noirs": 8937,
      "utf": 8938,
      "util": 8939,
      "utule": 8940,
      "utterly": 8941,
      "urer": 8942,
      "urst": 8943,
      "urved": 8944,
      "urging": 8945,
      "rawi": 8946,
      "rained": 8947,
      "ulatory": 8948,
      "socr": 8949,
      "irrit": 8950,
      "irie": 8951,
      "areg": 8952,
      "aren": 8953,
      "arett": 8954,
      "therine": 8955,
      "thermal": 8956,
      "phth": 8957,
      "pharm": 8958,
      "phob": 8959,
      "phron": 8960,
      "phibia": 8961,
      "emig": 8962,
      "empl": 8963,
      "embed": 8964,
      "emerson": 8965,
      "bya": 8966,
      "bytes": 8967,
      "byzant": 8968,
      "pod": 8969,
      "pool": 8970,
      "commo": 8971,
      "comrad": 8972,
      "prog": 8973,
      "probe": 8974,
      "propos": 8975,
      "provis": 8976,
      "propri": 8977,
      "prolong": 8978,
      "projections": 8979,
      "proximate": 8980,
      "rib": 8981,
      "exed": 8982,
      "extr": 8983,
      "excer": 8984,
      "exposition": 8985,
      "excell": 8986,
      "exterior": 8987,
      "exagger": 8988,
      "dilem": 8989,
      "aying": 8990,
      "ayurved": 8991,
      "liol": 8992,
      "lipol": 8993,
      "liverw": 8994,
      "liddy": 8995,
      "libya": 8996,
      "sixth": 8997,
      "sixteenth": 8998,
      "resent": 8999,
      "ressively": 9000,
      "aude": 9001,
      "aces": 9002,
      "acco": 9003,
      "acological": 9004,
      "acknowled": 9005,
      "acknowledge": 9006,
      "accompan": 9007,
      "accounting": 9008,
      "acosane": 9009,
      "esta": 9010,
      "estead": 9011,
      "etes": 9012,
      "ette": 9013,
      "eties": 9014,
      "etable": 9015,
      "etano": 9016,
      "mentions": 9017,
      "fourteenth": 9018,
      "artistic": 9019,
      "elf": 9020,
      "elit": 9021,
      "elics": 9022,
      "elimin": 9023,
      "ogenic": 9024,
      "ounce": 9025,
      "gores": 9026,
      "gosla": 9027,
      "plent": 9028,
      "pless": 9029,
      "plough": 9030,
      "planes": 9031,
      "plane": 9032,
      "actino": 9033,
      "actylus": 9034,
      "incess": 9035,
      "neur": 9036,
      "newar": 9037,
      "negl": 9038,
      "neolithic": 9039,
      "opt": 9040,
      "opters": 9041,
      "illusion": 9042,
      "allusions": 9043,
      "habeas": 9044,
      "archies": 9045,
      "archety": 9046,
      "afl": 9047,
      "afo": 9048,
      "afon": 9049,
      "affili": 9050,
      "afrasian": 9051,
      "quit": 9052,
      "quiz": 9053,
      "quotes": 9054,
      "quiet": 9055,
      "trun": 9056,
      "trimethyl": 9057,
      "derness": 9058,
      "anta": 9059,
      "essa": 9060,
      "ologues": 9061,
      "strange": 9062,
      "coc": 9063,
      "coer": 9064,
      "cope": 9065,
      "coher": 9066,
      "cohen": 9067,
      "coins": 9068,
      "coincident": 9069,
      "coord": 9070,
      "notor": 9071,
      "dure": 9072,
      "dual": 9073,
      "bos": 9074,
      "boche": 9075,
      "ghana": 9076,
      "shun": 9077,
      "shua": 9078,
      "beria": 9079,
      "geber": 9080,
      "geeks": 9081,
      "geographer": 9082,
      "persu": 9083,
      "performs": 9084,
      "permission": 9085,
      "permitted": 9086,
      "perennial": 9087,
      "ump": 9088,
      "preval": 9089,
      "prelim": 9090,
      "preface": 9091,
      "prehistoric": 9092,
      "preoccupation": 9093,
      "akhil": 9094,
      "somalia": 9095,
      "formic": 9096,
      "outed": 9097,
      "outbreak": 9098,
      "earns": 9099,
      "earnings": 9100,
      "idan": 9101,
      "idas": 9102,
      "idence": 9103,
      "ifa": 9104,
      "ifier": 9105,
      "meter": 9106,
      "melo": 9107,
      "meigs": 9108,
      "ansch": 9109,
      "astero": 9110,
      "ishable": 9111,
      "cloud": 9112,
      "claude": 9113,
      "tensions": 9114,
      "gru": 9115,
      "gry": 9116,
      "warned": 9117,
      "warships": 9118,
      "warrior": 9119,
      "contest": 9120,
      "contane": 9121,
      "contacts": 9122,
      "parted": 9123,
      "achuse": 9124,
      "gue": 9125,
      "guel": 9126,
      "guard": 9127,
      "guiller": 9128,
      "guarante": 9129,
      "disappear": 9130,
      "disney": 9131,
      "disagree": 9132,
      "disappearance": 9133,
      "disappearing": 9134,
      "disaster": 9135,
      "dissemin": 9136,
      "portal": 9137,
      "portals": 9138,
      "prone": 9139,
      "prud": 9140,
      "princess": 9141,
      "geny": 9142,
      "genus": 9143,
      "genius": 9144,
      "genstein": 9145,
      "ivate": 9146,
      "ivani": 9147,
      "ptive": 9148,
      "ksburg": 9149,
      "foods": 9150,
      "cancer": 9151,
      "cannon": 9152,
      "endors": 9153,
      "colom": 9154,
      "collabor": 9155,
      "collis": 9156,
      "socially": 9157,
      "izers": 9158,
      "pub": 9159,
      "pupil": 9160,
[...]
